{
  "!": 0,
  "\"": 1,
  "#": 2,
  "$": 3,
  "%": 4,
  "&": 5,
  "'": 6,
  "(": 7,
  ")": 8,
  "*": 9,
  "+": 10,
  ",": 11,
  "-": 12,
  ".": 13,
  "/": 14,
  "0": 15,
  "1": 16,
  "2": 17,
  "3": 18,
  "4": 19,
  "5": 20,
  "6": 21,
  "7": 22,
  "8": 23,
  "9": 24,
  ":": 25,
  ";": 26,
  "<": 27,
  "=": 28,
  ">": 29,
  "?": 30,
  "@": 31,
  "A": 32,
  "B": 33,
  "C": 34,
  "D": 35,
  "E": 36,
  "F": 37,
  "G": 38,
  "H": 39,
  "I": 40,
  "J": 41,
  "K": 42,
  "L": 43,
  "M": 44,
  "N": 45,
  "O": 46,
  "P": 47,
  "Q": 48,
  "R": 49,
  "S": 50,
  "T": 51,
  "U": 52,
  "V": 53,
  "W": 54,
  "X": 55,
  "Y": 56,
  "Z": 57,
  "[": 58,
  "\\": 59,
  "]": 60,
  "^": 61,
  "_": 62,
  "`": 63,
  "a": 64,
  "b": 65,
  "c": 66,
  "d": 67,
  "e": 68,
  "f": 69,
  "g": 70,
  "h": 71,
  "i": 72,
  "j": 73,
  "k": 74,
  "l": 75,
  "m": 76,
  "n": 77,
  "o": 78,
  "p": 79,
  "q": 80,
  "r": 81,
  "s": 82,
  "t": 83,
  "u": 84,
  "v": 85,
  "w": 86,
  "x": 87,
  "y": 88,
  "z": 89,
  "{": 90,
  "|": 91,
  "}": 92,
  "~": 93,
  "\u00a1": 94,
  "\u00a2": 95,
  "\u00a3": 96,
  "\u00a4": 97,
  "\u00a5": 98,
  "\u00a6": 99,
  "\u00a7": 100,
  "\u00a8": 101,
  "\u00a9": 102,
  "\u00aa": 103,
  "\u00ab": 104,
  "\u00ac": 105,
  "\u00ae": 106,
  "\u00af": 107,
  "\u00b0": 108,
  "\u00b1": 109,
  "\u00b2": 110,
  "\u00b3": 111,
  "\u00b4": 112,
  "\u00b5": 113,
  "\u00b6": 114,
  "\u00b7": 115,
  "\u00b8": 116,
  "\u00b9": 117,
  "\u00ba": 118,
  "\u00bb": 119,
  "\u00bc": 120,
  "\u00bd": 121,
  "\u00be": 122,
  "\u00bf": 123,
  "\u00c0": 124,
  "\u00c1": 125,
  "\u00c2": 126,
  "\u00c3": 127,
  "\u00c4": 128,
  "\u00c5": 129,
  "\u00c6": 130,
  "\u00c7": 131,
  "\u00c8": 132,
  "\u00c9": 133,
  "\u00ca": 134,
  "\u00cb": 135,
  "\u00cc": 136,
  "\u00cd": 137,
  "\u00ce": 138,
  "\u00cf": 139,
  "\u00d0": 140,
  "\u00d1": 141,
  "\u00d2": 142,
  "\u00d3": 143,
  "\u00d4": 144,
  "\u00d5": 145,
  "\u00d6": 146,
  "\u00d7": 147,
  "\u00d8": 148,
  "\u00d9": 149,
  "\u00da": 150,
  "\u00db": 151,
  "\u00dc": 152,
  "\u00dd": 153,
  "\u00de": 154,
  "\u00df": 155,
  "\u00e0": 156,
  "\u00e1": 157,
  "\u00e2": 158,
  "\u00e3": 159,
  "\u00e4": 160,
  "\u00e5": 161,
  "\u00e6": 162,
  "\u00e7": 163,
  "\u00e8": 164,
  "\u00e9": 165,
  "\u00ea": 166,
  "\u00eb": 167,
  "\u00ec": 168,
  "\u00ed": 169,
  "\u00ee": 170,
  "\u00ef": 171,
  "\u00f0": 172,
  "\u00f1": 173,
  "\u00f2": 174,
  "\u00f3": 175,
  "\u00f4": 176,
  "\u00f5": 177,
  "\u00f6": 178,
  "\u00f7": 179,
  "\u00f8": 180,
  "\u00f9": 181,
  "\u00fa": 182,
  "\u00fb": 183,
  "\u00fc": 184,
  "\u00fd": 185,
  "\u00fe": 186,
  "\u00ff": 187,
  "\u0100": 188,
  "\u0101": 189,
  "\u0102": 190,
  "\u0103": 191,
  "\u0104": 192,
  "\u0105": 193,
  "\u0106": 194,
  "\u0107": 195,
  "\u0108": 196,
  "\u0109": 197,
  "\u010a": 198,
  "\u010b": 199,
  "\u010c": 200,
  "\u010d": 201,
  "\u010e": 202,
  "\u010f": 203,
  "\u0110": 204,
  "\u0111": 205,
  "\u0112": 206,
  "\u0113": 207,
  "\u0114": 208,
  "\u0115": 209,
  "\u0116": 210,
  "\u0117": 211,
  "\u0118": 212,
  "\u0119": 213,
  "\u011a": 214,
  "\u011b": 215,
  "\u011c": 216,
  "\u011d": 217,
  "\u011e": 218,
  "\u011f": 219,
  "\u0120": 220,
  "\u0121": 221,
  "\u0122": 222,
  "\u0123": 223,
  "\u0124": 224,
  "\u0125": 225,
  "\u0126": 226,
  "\u0127": 227,
  "\u0128": 228,
  "\u0129": 229,
  "\u012a": 230,
  "\u012b": 231,
  "\u012c": 232,
  "\u012d": 233,
  "\u012e": 234,
  "\u012f": 235,
  "\u0130": 236,
  "\u0131": 237,
  "\u0132": 238,
  "\u0133": 239,
  "\u0134": 240,
  "\u0135": 241,
  "\u0136": 242,
  "\u0137": 243,
  "\u0138": 244,
  "\u0139": 245,
  "\u013a": 246,
  "\u013b": 247,
  "\u013c": 248,
  "\u013d": 249,
  "\u013e": 250,
  "\u013f": 251,
  "\u0140": 252,
  "\u0141": 253,
  "\u0142": 254,
  "\u0143": 255,
  "\u0120t": 256,
  "\u0120a": 257,
  "\u0120th": 258,
  "in": 259,
  "er": 260,
  "\u0120w": 261,
  "\u0120s": 262,
  "ou": 263,
  "\u0120the": 264,
  "re": 265,
  "on": 266,
  "at": 267,
  "en": 268,
  "\u0120c": 269,
  "it": 270,
  "is": 271,
  "\u0120b": 272,
  "nd": 273,
  "\u0120d": 274,
  "\u0120m": 275,
  "\u0120h": 276,
  "\u0120o": 277,
  "ing": 278,
  "es": 279,
  "\u0120p": 280,
  "\u0120to": 281,
  "an": 282,
  "\u0120f": 283,
  "or": 284,
  "ll": 285,
  "\u0120I": 286,
  "\u0120l": 287,
  "\u0120y": 288,
  "ar": 289,
  "\u0120g": 290,
  "\u0120you": 291,
  "ed": 292,
  "\u0120and": 293,
  "\u0120in": 294,
  "\u0120of": 295,
  "as": 296,
  "\u0120n": 297,
  "om": 298,
  "ic": 299,
  "\u0120that": 300,
  "us": 301,
  "et": 302,
  "ve": 303,
  "al": 304,
  "ow": 305,
  "le": 306,
  "\u0120is": 307,
  "\u0120e": 308,
  "\u0120it": 309,
  "ot": 310,
  "'s": 311,
  "\u0120be": 312,
  "ion": 313,
  "\u0120T": 314,
  "\u0120wh": 315,
  "\u0120A": 316,
  "ent": 317,
  "\u0120S": 318,
  "\u0120re": 319,
  "ay": 320,
  "\u0120we": 321,
  "\u0120on": 322,
  "ere": 323,
  "\u0120ha": 324,
  "ut": 325,
  "ac": 326,
  "id": 327,
  "ig": 328,
  "os": 329,
  "ke": 330,
  "ver": 331,
  "im": 332,
  "\u0120\u00d0": 333,
  "\u0120Th": 334,
  "am": 335,
  "all": 336,
  "\u0120for": 337,
  "el": 338,
  "ch": 339,
  "ro": 340,
  "\u0120this": 341,
  "\u0120st": 342,
  "\u0120W": 343,
  "\u0120u": 344,
  "ad": 345,
  "out": 346,
  "ir": 347,
  "ld": 348,
  "ct": 349,
  "\u0120k": 350,
  "if": 351,
  "\u0120go": 352,
  "..": 353,
  "\u00d0\u00be": 354,
  "ith": 355,
  "ly": 356,
  "ht": 357,
  "qu": 358,
  "\u0120-": 359,
  "\u0120do": 360,
  "\u0120j": 361,
  "\u0120have": 362,
  "\u0120B": 363,
  "\u0120an": 364,
  "\u0120with": 365,
  "\u0120are": 366,
  "\u0120r": 367,
  "\u0120de": 368,
  "\u0120se": 369,
  "\u0120so": 370,
  "\u0120v": 371,
  "st": 372,
  "ill": 373,
  "ur": 374,
  "\u0120li": 375,
  "\u0120M": 376,
  "est": 377,
  "od": 378,
  "ally": 379,
  "'t": 380,
  "ust": 381,
  "\u0120as": 382,
  "\u0120C": 383,
  "ce": 384,
  "\u0120me": 385,
  "\u00d0\u00b0": 386,
  "\u00d0\u00b5": 387,
  "il": 388,
  "\u0120H": 389,
  "\u0120was": 390,
  "ter": 391,
  "th": 392,
  "\u0120can": 393,
  "ant": 394,
  "\u0120com": 395,
  "our": 396,
  "ight": 397,
  "\u0120Y": 398,
  "ation": 399,
  "\u0120And": 400,
  "ol": 401,
  "\u0120sh": 402,
  "\u00d1\u0124": 403,
  "op": 404,
  "se": 405,
  "\u0120not": 406,
  "\u0120So": 407,
  "\u0120ne": 408,
  "un": 409,
  "\u0120ab": 410,
  "\u0120like": 411,
  "\u0120at": 412,
  "\u0120D": 413,
  "ie": 414,
  "\u0120he": 415,
  "\u0120con": 416,
  "\u0120ch": 417,
  "ore": 418,
  "\u0120al": 419,
  "\u0120or": 420,
  "\u0120qu": 421,
  "\u0120O": 422,
  "ome": 423,
  "ra": 424,
  "ul": 425,
  "\u0120N": 426,
  "pp": 427,
  "\u0120your": 428,
  "ould": 429,
  "\u0120P": 430,
  "\u0120fr": 431,
  "ge": 432,
  "ers": 433,
  "'re": 434,
  "\u00d0\u00b8": 435,
  "\u0120they": 436,
  "\u0120what": 437,
  "use": 438,
  "\u0120all": 439,
  "\u0120The": 440,
  "\u0120L": 441,
  "ess": 442,
  "em": 443,
  "\u0120kn": 444,
  "\u0120just": 445,
  "art": 446,
  "\u0120pro": 447,
  "very": 448,
  "um": 449,
  "\u0120lo": 450,
  "\u0120\u00ec": 451,
  "\u0120my": 452,
  "ok": 453,
  "\u0120ex": 454,
  "ab": 455,
  "\u0120there": 456,
  "\u0120but": 457,
  "\u0120know": 458,
  "\u0120su": 459,
  "\u0120G": 460,
  "\u00d1\u0123": 461,
  "\u0120E": 462,
  "\u0120ma": 463,
  "\u00d0\u00be\u00d0": 464,
  "\u0120en": 465,
  "\u0120about": 466,
  "\u0120It": 467,
  "ist": 468,
  "\u0120wor": 469,
  "ri": 470,
  "ind": 471,
  "\u0120one": 472,
  "ate": 473,
  "and": 474,
  "ink": 475,
  "\u0120le": 476,
  "ort": 477,
  "'m": 478,
  "\u0120F": 479,
  "ich": 480,
  "\u00d1\u0122": 481,
  "ide": 482,
  "\u0120get": 483,
  "\u0120out": 484,
  "...": 485,
  "\u0120will": 486,
  "\u00e3\u0123": 487,
  "ive": 488,
  "\u00d0\u00bd": 489,
  "\u0120from": 490,
  "ain": 491,
  "\u0120We": 492,
  "\u0120up": 493,
  "pe": 494,
  "res": 495,
  "ca": 496,
  "\u0120R": 497,
  "\u0120if": 498,
  "\u0120pl": 499,
  "\u0120don": 500,
  "ack": 501,
  "\u01201": 502,
  "\u0120\"": 503,
  "\u0120tr": 504,
  "\u0120us": 505,
  "\u0120Wh": 506,
  "ity": 507,
  "\u0120J": 508,
  "\u0120You": 509,
  "\u0120here": 510,
  "her": 511,
  "\u0120some": 512,
  "oug": 513,
  "ak": 514,
  "ard": 515,
  "\u0120going": 516,
  "\u0120un": 517,
  "ment": 518,
  "\u0120think": 519,
  "\u0120pe": 520,
  "end": 521,
  "\u0120(": 522,
  "cause": 523,
  "\u0120tim": 524,
  "ast": 525,
  "\u00c3\u00a9": 526,
  "\u0120our": 527,
  "\u0120want": 528,
  "ame": 529,
  "ies": 530,
  "\u0120\u00eb": 531,
  "ud": 532,
  "ine": 533,
  "\u0120really": 534,
  "\u0120te": 535,
  "\u0120see": 536,
  "ci": 537,
  "\u0120by": 538,
  "so": 539,
  "ure": 540,
  "ose": 541,
  "\u0120[": 542,
  "are": 543,
  "\u0120more": 544,
  "ah": 545,
  "one": 546,
  "ck": 547,
  "ople": 548,
  "\u00d0\u00b0\u00d0": 549,
  "\u0120then": 550,
  "\u0120thing": 551,
  "\u0120them": 552,
  "ven": 553,
  "ound": 554,
  "ost": 555,
  "ong": 556,
  "ect": 557,
  "\u0120right": 558,
  "ag": 559,
  "\u0120int": 560,
  "\u0120people": 561,
  "\u0120when": 562,
  "ous": 563,
  "pl": 564,
  "\u0120time": 565,
  "\u0120im": 566,
  "\u0120who": 567,
  "\u01202": 568,
  "ap": 569,
  "\u0120because": 570,
  "hing": 571,
  "\u0120no": 572,
  "ice": 573,
  "\u0120look": 574,
  "\u0120has": 575,
  "\u0120would": 576,
  "\u0120how": 577,
  "act": 578,
  "\u0120fe": 579,
  "nt": 580,
  "ough": 581,
  "\u0120pr": 582,
  "\u0120But": 583,
  "\u0120say": 584,
  "\u00d1\u0125": 585,
  "\u0120now": 586,
  "\u0120man": 587,
  "\u0120very": 588,
  "\u0120work": 589,
  "iz": 590,
  "\u0120K": 591,
  "iv": 592,
  "itt": 593,
  "\u0120ar": 594,
  "ep": 595,
  "\u0120cl": 596,
  "\u0120which": 597,
  "\u0120co": 598,
  "ans": 599,
  "'ve": 600,
  "\u0120sa": 601,
  "ff": 602,
  "'ll": 603,
  "\u0120any": 604,
  "\u0120act": 605,
  "\u0120ye": 606,
  "ber": 607,
  "ach": 608,
  "age": 609,
  "per": 610,
  "\u0120also": 611,
  "fer": 612,
  "\u0120these": 613,
  "\u0120ad": 614,
  "\u00d0\u00b5\u00d0": 615,
  "ther": 616,
  "ace": 617,
  "ick": 618,
  "ake": 619,
  "reat": 620,
  "ire": 621,
  "ue": 622,
  "\u0120ag": 623,
  "\u0120U": 624,
  "uch": 625,
  "ions": 626,
  "ry": 627,
  "00": 628,
  "na": 629,
  "\u0120did": 630,
  "\u0120que": 631,
  "\u0120had": 632,
  "\u0120every": 633,
  "\u0120He": 634,
  "\u0120la": 635,
  "\u0120way": 636,
  "\u0120sp": 637,
  "ble": 638,
  "\u0120This": 639,
  "ass": 640,
  "\u0120their": 641,
  "ite": 642,
  "\u0120need": 643,
  "\u0120part": 644,
  "\u0120were": 645,
  "\u0120back": 646,
  "ip": 647,
  "own": 648,
  "omet": 649,
  "be": 650,
  "ase": 651,
  "\u0120make": 652,
  "irst": 653,
  "ia": 654,
  "ence": 655,
  "ang": 656,
  "ank": 657,
  "\u0120got": 658,
  "\u0120pre": 659,
  "\u0120cont": 660,
  "\u0120other": 661,
  "pt": 662,
  "\u0120That": 663,
  "og": 664,
  "\u0120good": 665,
  "\u0120into": 666,
  "alk": 667,
  "\u0120been": 668,
  "\u0120am": 669,
  "\u0120over": 670,
  "ually": 671,
  "\u0120\u00e2": 672,
  "\u00ec\u013f": 673,
  "\u0120und": 674,
  "he": 675,
  "way": 676,
  "\u0120gr": 677,
  "\u00d1\u012e": 678,
  "\u0120dif": 679,
  "\u0120per": 680,
  "\u00d1\u0131": 681,
  "\u0120In": 682,
  "\u0120tw": 683,
  "ond": 684,
  "ars": 685,
  "int": 686,
  "orm": 687,
  "\u0120lot": 688,
  "\u0120where": 689,
  "\u0120\u00c3": 690,
  "\u0120V": 691,
  "\u0120somet": 692,
  "\u00d0\u00bb": 693,
  "ens": 694,
  "\u0120gu": 695,
  "\u0120ac": 696,
  "ug": 697,
  "\u00d1\u012d": 698,
  "\u00c4\u00b1": 699,
  "\u0120first": 700,
  "ree": 701,
  "\u0120his": 702,
  "ittle": 703,
  "\u0120imp": 704,
  "\u0120mo": 705,
  "av": 706,
  "\u0120little": 707,
  "\u0120What": 708,
  "\u0120much": 709,
  "\u0120z": 710,
  "\u0120\u00ea": 711,
  "able": 712,
  "\u0120\u00d0\u00bf": 713,
  "\u0120po": 714,
  "\u0120comp": 715,
  "ne": 716,
  "\u0120dis": 717,
  "\u0120let": 718,
  "ance": 719,
  "\u0120her": 720,
  "\u0120things": 721,
  "\u0120start": 722,
  "ult": 723,
  "\u0120app": 724,
  "\u0120res": 725,
  "\u0120fo": 726,
  "\u0120could": 727,
  "\u0120inter": 728,
  "\u0120those": 729,
  "\u0120des": 730,
  "\u0120well": 731,
  "\u0120two": 732,
  "\u0120kind": 733,
  "xt": 734,
  "ress": 735,
  "ely": 736,
  "\u00c3\u00a4": 737,
  "\u0120br": 738,
  "\u0120thr": 739,
  "\u0120\u00d0\u00b2": 740,
  "\u0120i": 741,
  "ish": 742,
  "\u0120differ": 743,
  "\u0120ro": 744,
  "\u0120St": 745,
  "\u0120something": 746,
  "\u0120take": 747,
  "\u0120bo": 748,
  "ys": 749,
  "\u0120she": 750,
  "\u0120talk": 751,
  "lo": 752,
  "\u00d1\u0129": 753,
  "\u0120even": 754,
  "\u00d0\u00ba": 755,
  "\u00e3\u0122": 756,
  "\u0120\u00d0\u00bd": 757,
  "\u0120bu": 758,
  "\u0120If": 759,
  "\u0120down": 760,
  "\u0120Ch": 761,
  "ade": 762,
  "ations": 763,
  "\u0120use": 764,
  "ord": 765,
  "\u0120off": 766,
  "\u0120actually": 767,
  "\u0120spe": 768,
  "du": 769,
  "ated": 770,
  "ater": 771,
  "oss": 772,
  "ning": 773,
  "\u00c3\u00bc": 774,
  "\u0120does": 775,
  "\u0120\u00d1\u0123": 776,
  "\u0120new": 777,
  "\u0120bet": 778,
  "vel": 779,
  "cess": 780,
  "ple": 781,
  "\u0120happ": 782,
  "ting": 783,
  "onna": 784,
  "\u0120es": 785,
  "\u0120day": 786,
  "\u0120only": 787,
  "ign": 788,
  "kay": 789,
  "sel": 790,
  "ents": 791,
  "ount": 792,
  "ild": 793,
  "ile": 794,
  "\u0120sc": 795,
  "\u0120him": 796,
  "\u0120again": 797,
  "ving": 798,
  "\u0120gonna": 799,
  "\u0120comm": 800,
  "\u0120hel": 801,
  "other": 802,
  "\u0120ke": 803,
  "ical": 804,
  "\u01203": 805,
  "\u0120el": 806,
  "\u0120through": 807,
  "\u0120come": 808,
  "ark": 809,
  "day": 810,
  "ier": 811,
  "\u00c3\u00b3": 812,
  "\u0120than": 813,
  "\u0120They": 814,
  "\u0120may": 815,
  "\u0120ser": 816,
  "\u00ed\u0137": 817,
  "\u0120call": 818,
  "\u0120different": 819,
  "\u0120should": 820,
  "\u0120There": 821,
  "ary": 822,
  "\u0120Now": 823,
  "\u00e3\u0124": 824,
  "thing": 825,
  "we": 826,
  "ory": 827,
  "fter": 828,
  "\u0120put": 829,
  "ors": 830,
  "ial": 831,
  "\u00eb\u012d": 832,
  "\u0120under": 833,
  "\u0120inc": 834,
  "\u0120Ye": 835,
  "ub": 836,
  "form": 837,
  "\u0120vide": 838,
  "\u00e0\u00b8": 839,
  "vers": 840,
  "\u0120feel": 841,
  "\u00c3\u00a1": 842,
  "ody": 843,
  "ft": 844,
  "fore": 845,
  "\u0120em": 846,
  "get": 847,
  "\u0120said": 848,
  "ition": 849,
  "\u0120rec": 850,
  "ious": 851,
  "atch": 852,
  "\u0120try": 853,
  "\u0120help": 854,
  "\u0120show": 855,
  "\u00d0\u00b4": 856,
  "\u0120bit": 857,
  "ull": 858,
  "\u00d0\u00b2": 859,
  "\u00d1\u0124\u00d0\u00be": 860,
  "gr": 861,
  "\u0120play": 862,
  "ife": 863,
  "ail": 864,
  "\u0120Yeah": 865,
  "\u0120quest": 866,
  "\u0120many": 867,
  "\u0120pers": 868,
  "\u0120great": 869,
  "\u00c3\u0143": 870,
  "\u0120est": 871,
  "ng": 872,
  "\u0120\u00e2\u013b": 873,
  "ty": 874,
  "la": 875,
  "\u0120Oh": 876,
  "\u0120\u00d7": 877,
  "\u00e0\u00ae": 878,
  "\u0120Be": 879,
  "ady": 880,
  "\u0120most": 881,
  "ction": 882,
  "\u0120No": 883,
  "\u0120doing": 884,
  "\u0120being": 885,
  "\u0120too": 886,
  "ces": 887,
  "\u0120bl": 888,
  ".\"": 889,
  "\u0120rem": 890,
  "iss": 891,
  "ons": 892,
  ">>": 893,
  "ru": 894,
  "wn": 895,
  "ont": 896,
  "ib": 897,
  "ell": 898,
  "\u0120sm": 899,
  "oth": 900,
  "ual": 901,
  "\u0120>>": 902,
  "\u0120ph": 903,
  "les": 904,
  "oc": 905,
  "ful": 906,
  "\u0120sec": 907,
  "ise": 908,
  "\u0120add": 909,
  "igh": 910,
  "ert": 911,
  "\u0120same": 912,
  "\u00e2\u0122": 913,
  "\u0120mean": 914,
  "\u0120find": 915,
  "ek": 916,
  "\u0120end": 917,
  "--": 918,
  "\u00d0\u00bc": 919,
  "\u0120still": 920,
  "az": 921,
  "\u0120'": 922,
  "\u0120min": 923,
  "\u0120years": 924,
  "urn": 925,
  "\u0120around": 926,
  "self": 927,
  "\u0120wr": 928,
  "bs": 929,
  "ought": 930,
  "\u0120\u00e2\u013b\u00aa": 931,
  "\u0120fl": 932,
  "ange": 933,
  "\u0120after": 934,
  "\u0120point": 935,
  "mer": 936,
  "ved": 937,
  "\u0120long": 938,
  "oy": 939,
  "\u00e4\u00b8": 940,
  "\u0120cr": 941,
  "ways": 942,
  "\u0120sy": 943,
  "\u0120tra": 944,
  "\u012020": 945,
  "ave": 946,
  "\u0120che": 947,
  "\u0120ent": 948,
  "\u0120before": 949,
  "ph": 950,
  "\u0120att": 951,
  "ian": 952,
  "ily": 953,
  "\u0120person": 954,
  "\u0120big": 955,
  "\u0120sch": 956,
  "\u0120real": 957,
  "\u0120next": 958,
  "\u0120love": 959,
  "\u0120video": 960,
  "\u0120Let": 961,
  "\u0120fin": 962,
  "\u0120mak": 963,
  "ible": 964,
  "\u0120today": 965,
  "erm": 966,
  "\u0120Al": 967,
  "ower": 968,
  "ann": 969,
  "ix": 970,
  "\u0120par": 971,
  "\u0120stud": 972,
  "\u00c3\u00b6": 973,
  "\u0120import": 974,
  "te": 975,
  "\u0120give": 976,
  "ves": 977,
  "\u0120die": 978,
  "\u0120dec": 979,
  "\u0120tell": 980,
  "\u0120\u00d0\u00ba": 981,
  "\u00d1\u0123\u00d1\u0124": 982,
  "\u0120why": 983,
  "ically": 984,
  "ict": 985,
  "red": 986,
  "\u0120bas": 987,
  "\u0120sure": 988,
  "\u0120bel": 989,
  "ating": 990,
  "\u0120tak": 991,
  "\u0120set": 992,
  "\u0120life": 993,
  "\u0120didn": 994,
  "\u00d8\u00a7": 995,
  "ob": 996,
  "und": 997,
  "ath": 998,
  "\u0120op": 999,
  "\u0120\u00d0\u00be": 1000,
  "ait": 1001,
  "\u0120world": 1002,
  "\u0120supp": 1003,
  "io": 1004,
  "\u0120cour": 1005,
  "\u0120\u00d0\u00b8": 1006,
  "ward": 1007,
  "\u00d0\u00b5\u00d0\u00bd": 1008,
  "\u0120always": 1009,
  "up": 1010,
  "\u0120hand": 1011,
  "\u0120How": 1012,
  "cial": 1013,
  "\u0120cons": 1014,
  "\u0120\u00d1": 1015,
  "\u0120ind": 1016,
  "\u01204": 1017,
  "\u0120As": 1018,
  "\u0120fun": 1019,
  "ject": 1020,
  "\u0120important": 1021,
  "\u0120sur": 1022,
  "ew": 1023,
  "ates": 1024,
  "\u01205": 1025,
  "\u0120di": 1026,
  "\u0120made": 1027,
  "\u0120ins": 1028,
  "\u0120ask": 1029,
  "\u0120et": 1030,
  "\u0120num": 1031,
  "\u0120car": 1032,
  "\u0120Okay": 1033,
  "\u0120sim": 1034,
  "ik": 1035,
  "\u0120last": 1036,
  "\u0120Go": 1037,
  "\u0120mus": 1038,
  "\u0120rel": 1039,
  "ular": 1040,
  "\u00b4\u00ec": 1041,
  "\u0120Well": 1042,
  "pect": 1043,
  "\u0120Thank": 1044,
  "\u0120three": 1045,
  "\u00c3\u00a3": 1046,
  "\u00e3\u0125": 1047,
  "\u0120inv": 1048,
  "\u0120gen": 1049,
  "lic": 1050,
  "\u0120happen": 1051,
  "\u00eb\u012c": 1052,
  "ien": 1053,
  "ever": 1054,
  "\u00d0\u00be\u00d0\u00b2": 1055,
  "\u0120str": 1056,
  "\u0120All": 1057,
  "\u0120inst": 1058,
  "\u0120\u00e2\u0122": 1059,
  "\u0120def": 1060,
  "\u0120sl": 1061,
  "\u0120might": 1062,
  "ung": 1063,
  "\u0120year": 1064,
  "\u0120own": 1065,
  "\u0120keep": 1066,
  "body": 1067,
  "der": 1068,
  "\u0120\u00d1\u0124": 1069,
  "\u0120\u00d0\u00b4": 1070,
  "\u0120another": 1071,
  "\u0120mod": 1072,
  "\u0120ev": 1073,
  "\u0120guys": 1074,
  "\u0120able": 1075,
  "\u00c3\u00a3o": 1076,
  "que": 1077,
  "ident": 1078,
  "\u0120Yes": 1079,
  "\u0120its": 1080,
  "\u0120place": 1081,
  "\u0120produ": 1082,
  "arn": 1083,
  "\u0120\u00d0\u00bc": 1084,
  "\u0120rep": 1085,
  "\u0120exper": 1086,
  "\u0120fam": 1087,
  "ities": 1088,
  "ific": 1089,
  "\u0120high": 1090,
  "ied": 1091,
  "ool": 1092,
  "iew": 1093,
  "\u00d0\u00b5\u00d1\u0124": 1094,
  "ren": 1095,
  "\u0120done": 1096,
  "\u0120...": 1097,
  "\u00eb\u012c\u0136": 1098,
  "stem": 1099,
  "\u0120Se": 1100,
  "\u0120better": 1101,
  "come": 1102,
  "\u0120del": 1103,
  "\u0120ty": 1104,
  "\u0120um": 1105,
  "\u0120ho": 1106,
  "\u0120An": 1107,
  "\u0120mon": 1108,
  "ings": 1109,
  "\u0120sk": 1110,
  "\u0120ob": 1111,
  "com": 1112,
  "blem": 1113,
  "ope": 1114,
  "stand": 1115,
  "'d": 1116,
  "ments": 1117,
  "\u0120ele": 1118,
  "\u0120Is": 1119,
  "\u0120da": 1120,
  "\u0120reg": 1121,
  "lease": 1122,
  "ike": 1123,
  "als": 1124,
  "ize": 1125,
  "\u00ea\u00b0": 1126,
  "\u0120care": 1127,
  "\u0120never": 1128,
  "\u00ec\u013f\u00b4": 1129,
  "ese": 1130,
  "\u0120met": 1131,
  "olog": 1132,
  "\u0120When": 1133,
  "uck": 1134,
  "\u00d0\u00b5\u00d1\u0122": 1135,
  "\u0120\u00c3\u00a9": 1136,
  "\u0120dat": 1137,
  "\u00c3\u00a7": 1138,
  "\u0120exam": 1139,
  "ility": 1140,
  "\u0120det": 1141,
  "cri": 1142,
  "\u0120used": 1143,
  "\u0120Do": 1144,
  "\u0120trans": 1145,
  "eg": 1146,
  "ten": 1147,
  "\u00d1\u0130": 1148,
  "cus": 1149,
  "\u0120second": 1150,
  "\u0120best": 1151,
  "\u0120hard": 1152,
  "\u0120ide": 1153,
  "\u0120problem": 1154,
  "\u00ea\u00b3": 1155,
  "\u0120Un": 1156,
  "\u00d1\u0127": 1157,
  "\u0120\u00ce": 1158,
  "\u0120watch": 1159,
  "\u0120Sh": 1160,
  "atter": 1161,
  "\u0120pret": 1162,
  "\u0120der": 1163,
  "\u0120course": 1164,
  "\u00c5\u0141": 1165,
  "ative": 1166,
  "ics": 1167,
  "\u0120question": 1168,
  "ute": 1169,
  "\u00ec\u0139": 1170,
  "\u0120For": 1171,
  "ather": 1172,
  "\u0120col": 1173,
  "iend": 1174,
  "\u0120\u00ed": 1175,
  "\u0120Z": 1176,
  "\u0120doesn": 1177,
  "arch": 1178,
  "\u0120interest": 1179,
  "\u0120pol": 1180,
  "\u0120cor": 1181,
  "ience": 1182,
  "\u0120pres": 1183,
  "\u0120each": 1184,
  "\u0120system": 1185,
  "\u0120fact": 1186,
  "iel": 1187,
  "ably": 1188,
  "\u0120er": 1189,
  "\u0120run": 1190,
  "\u0120\u00ec\u013f": 1191,
  "\u0120top": 1192,
  "ner": 1193,
  "\u0120thought": 1194,
  "\u0120eas": 1195,
  "ient": 1196,
  "\u0120cre": 1197,
  "\u00d1\u012a": 1198,
  "\u0120commun": 1199,
  "ye": 1200,
  "ready": 1201,
  "llow": 1202,
  "\u0120everything": 1203,
  "omm": 1204,
  "\u0120med": 1205,
  "\u013c\u0136": 1206,
  "\u0120count": 1207,
  "its": 1208,
  "\u0120compl": 1209,
  "hip": 1210,
  "\u00d9\u0126": 1211,
  "ook": 1212,
  "\u0120toget": 1213,
  "\u0120together": 1214,
  "amp": 1215,
  "\u0120game": 1216,
  "\u0120already": 1217,
  "\u00d0\u00b0\u00d0\u00bb": 1218,
  "\u0120called": 1219,
  "ale": 1220,
  "\u00c5\u0124": 1221,
  "\u0120My": 1222,
  "\u0120understand": 1223,
  "\u0120dr": 1224,
  "\u0120mom": 1225,
  "ited": 1226,
  "\u00d0\u00be\u00d0\u00bb": 1227,
  "\u0120using": 1228,
  "zy": 1229,
  "\u0120number": 1230,
  "\u00e3\u0122\u0123": 1231,
  "ced": 1232,
  "\u0120cle": 1233,
  "\u00d0\u00bd\u00d0\u00be": 1234,
  "\u00eb\u012d\u00a4": 1235,
  "ince": 1236,
  "\u0120looking": 1237,
  "\u0120pretty": 1238,
  "\u0120prob": 1239,
  "\u0120She": 1240,
  "\u0120ve": 1241,
  "\u0120getting": 1242,
  "\u0120week": 1243,
  "\u0120eff": 1244,
  "uff": 1245,
  "air": 1246,
  "ues": 1247,
  "ern": 1248,
  "\u0120Q": 1249,
  "oup": 1250,
  "ention": 1251,
  "\u0120side": 1252,
  "\u00d0\u00be\u00d0\u00bc": 1253,
  "\u0120form": 1254,
  "\u0120bus": 1255,
  "\u0120ass": 1256,
  "\u0120ed": 1257,
  "ason": 1258,
  "ween": 1259,
  "\u00e2\u0122\u00a6": 1260,
  "\u0120turn": 1261,
  "\u0120cur": 1262,
  "\u0120coll": 1263,
  "\u0120dire": 1264,
  "\u0120God": 1265,
  "\u012010": 1266,
  "\u0120equ": 1267,
  "\u0120\u00d0\u00b1": 1268,
  "\u0120open": 1269,
  "\u0120such": 1270,
  "ird": 1271,
  "\u00d0\u00b0\u00d0\u00ba": 1272,
  "\u0120ear": 1273,
  "\u00c4\u013b": 1274,
  "gan": 1275,
  "\u0120partic": 1276,
  "\u0120friend": 1277,
  "\u0120exp": 1278,
  "\u0120ext": 1279,
  "\u0120home": 1280,
  "\u0120water": 1281,
  "\u0120On": 1282,
  "\u00d1\u0124\u00d1\u012e": 1283,
  "ork": 1284,
  "\u0120\u00d0\u00bf\u00d1\u0122": 1285,
  "\u0120move": 1286,
  "ness": 1287,
  "ense": 1288,
  "ho": 1289,
  "\u0120char": 1290,
  "co": 1291,
  "ins": 1292,
  "\u0120both": 1293,
  "\u012019": 1294,
  "\u0120gra": 1295,
  "\u0120between": 1296,
  "\u00e1\u00bb": 1297,
  "\u0120\u00ec\u0137": 1298,
  "ash": 1299,
  "\u0120Re": 1300,
  "ai": 1301,
  "alth": 1302,
  "ures": 1303,
  "ember": 1304,
  "\u0120av": 1305,
  "\u0120ver": 1306,
  "\u00c3\u00aa": 1307,
  "oney": 1308,
  "\u0120thank": 1309,
  "\u0120maybe": 1310,
  "uc": 1311,
  "ime": 1312,
  "\u00ea\u00b3\u0142": 1313,
  "\u0120away": 1314,
  "\u0120name": 1315,
  "ouse": 1316,
  "\u0120acc": 1317,
  "\u0120music": 1318,
  "\u0120change": 1319,
  "\u0120pass": 1320,
  "ger": 1321,
  "\u0120build": 1322,
  "\u0120val": 1323,
  "iness": 1324,
  "any": 1325,
  "\u0120few": 1326,
  "\u00b4\u00eb": 1327,
  "ta": 1328,
  "\u0120list": 1329,
  "\u00c3\u00a5": 1330,
  "\u0120old": 1331,
  "\u0120\u00ec\u0140": 1332,
  "\u0120sort": 1333,
  "\u0120mem": 1334,
  "\u0120ca": 1335,
  "cept": 1336,
  "\u0120gener": 1337,
  "\u0120yeah": 1338,
  "\u0120while": 1339,
  "\u0120anything": 1340,
  "ric": 1341,
  "gram": 1342,
  "\u0120ein": 1343,
  "cy": 1344,
  "uring": 1345,
  "\u0120De": 1346,
  "\u0120power": 1347,
  "\u0120coming": 1348,
  "\u0120word": 1349,
  "\u0120--": 1350,
  "\u0120belie": 1351,
  "\u0120found": 1352,
  "to": 1353,
  "\u00d0\u00bf": 1354,
  "\u0120means": 1355,
  "\u0120inform": 1356,
  "\u0120\u00d8": 1357,
  "\u0120\u00d1\u0129": 1358,
  "\u0120small": 1359,
  "000": 1360,
  "\u0120came": 1361,
  "\u0120\u00ed\u0137": 1362,
  "wh": 1363,
  "\u0120working": 1364,
  "\u0120example": 1365,
  "\u0120pos": 1366,
  "\u0120dep": 1367,
  "\u00ea\u00b2": 1368,
  "\u00e4\u00ba": 1369,
  "ote": 1370,
  "\u0120dem": 1371,
  "\u00ec\u00a7": 1372,
  "ts": 1373,
  "\u0120var": 1374,
  "aut": 1375,
  "\u0120tri": 1376,
  "chn": 1377,
  "\u0120head": 1378,
  "\u0120whole": 1379,
  "\u00d7\u013b": 1380,
  "ze": 1381,
  "\u0120trying": 1382,
  "\u0120tem": 1383,
  "\u0120cou": 1384,
  "ets": 1385,
  "\u01206": 1386,
  "\u0120fil": 1387,
  "velop": 1388,
  "\u0120case": 1389,
  "\u00e0\u00af": 1390,
  "\u0120probably": 1391,
  "\u0120okay": 1392,
  "\u0120plan": 1393,
  "\u0120sit": 1394,
  "\u0120school": 1395,
  "\u0120Then": 1396,
  "\u00b8\u00eb": 1397,
  "me": 1398,
  "\u0120process": 1399,
  "\u0120far": 1400,
  "\u0120read": 1401,
  "\u0120poss": 1402,
  "\u0120bre": 1403,
  "\u0120sol": 1404,
  "icht": 1405,
  "\u0120support": 1406,
  "\u0120To": 1407,
  "ertain": 1408,
  "\u0120started": 1409,
  "\u0120cap": 1410,
  "\u0120left": 1411,
  "\u0120data": 1412,
  "\u0120times": 1413,
  "\u00d0\u00b5\u00d0\u00bb": 1414,
  "\u0120wanted": 1415,
  "\u00d0\u00b0\u00d0\u00bd": 1416,
  "\u0120talking": 1417,
  "\u0120ist": 1418,
  "\u0120having": 1419,
  "ump": 1420,
  "\u0120contin": 1421,
  "\u0120sub": 1422,
  "\u0120\u00d0\u00b7": 1423,
  "pr": 1424,
  "\u00eb\u012d\u012a": 1425,
  "ina": 1426,
  "\u00c5\u00bc": 1427,
  "\u0120creat": 1428,
  "ode": 1429,
  "\u00d7\u0137": 1430,
  "\u00e6\u013a": 1431,
  "!!": 1432,
  "\u0120term": 1433,
  "ism": 1434,
  "\u00d0\u00be\u00d0\u00b4": 1435,
  "\u0120Because": 1436,
  "\u0120went": 1437,
  "ider": 1438,
  "\u0120prov": 1439,
  "\u0120child": 1440,
  "\u0120den": 1441,
  "\u0120light": 1442,
  "br": 1443,
  "\u00b3\u00d0\u00be": 1444,
  "oh": 1445,
  "\u0120book": 1446,
  "\u0120\u00d9": 1447,
  "ution": 1448,
  "\u0120Just": 1449,
  "ene": 1450,
  "\u0120four": 1451,
  "\u0120vis": 1452,
  "\u00ea\u00b0\u0122": 1453,
  "\u0120hope": 1454,
  "\u0120making": 1455,
  "\u0120Le": 1456,
  "\u00ec\u0137": 1457,
  "\u0120opp": 1458,
  "au": 1459,
  "\u0120money": 1460,
  "\u0120program": 1461,
  "\u00c3\u00a8": 1462,
  "\u0120stand": 1463,
  "IN": 1464,
  "\u0120sign": 1465,
  "\u0120learn": 1466,
  "\u00c3\u0142": 1467,
  "\u0120Don": 1468,
  "\u0120team": 1469,
  "\u0120\u00d0\u00bd\u00d0\u00b0": 1470,
  "lud": 1471,
  "\u0120rest": 1472,
  "ices": 1473,
  "\u00e6\u013e": 1474,
  "\u0120\u00d1\u0122": 1475,
  "\u0120aut": 1476,
  "\u0120lead": 1477,
  "ational": 1478,
  "de": 1479,
  "gy": 1480,
  "\u0120nice": 1481,
  "\u0120das": 1482,
  "\u0120dist": 1483,
  "\u0120hum": 1484,
  "\u0120One": 1485,
  "\u00e6\u012a": 1486,
  "\u0120comes": 1487,
  "\u0120jo": 1488,
  "\u0120cent": 1489,
  "\u0120expl": 1490,
  "\u0120mark": 1491,
  "reen": 1492,
  "led": 1493,
  "gin": 1494,
  "\u00ec\u013c\u0136": 1495,
  "\u0120level": 1496,
  "\u0120conf": 1497,
  "ush": 1498,
  "\u0120develop": 1499,
  "\u0120test": 1500,
  "eng": 1501,
  "vious": 1502,
  "ature": 1503,
  "\u00d0\u00b5\u00d0\u00bc": 1504,
  "ret": 1505,
  "\u0120je": 1506,
  "\u0120stuff": 1507,
  "\u0120class": 1508,
  "ows": 1509,
  "\u0120\u00ea\u00b7": 1510,
  "\u0120si": 1511,
  "\u0120les": 1512,
  "rop": 1513,
  "\u00e7\u013c": 1514,
  "\u0120por": 1515,
  "\u0120war": 1516,
  "\u00ec\u0139\u0132": 1517,
  "\u0120everyone": 1518,
  "\u0120ge": 1519,
  "\u0120check": 1520,
  "ott": 1521,
  "\u0120sing": 1522,
  "\u0120art": 1523,
  "\u0120follow": 1524,
  "\u0120201": 1525,
  "\u0120Fr": 1526,
  "ais": 1527,
  "\u00ec\u0138": 1528,
  "\u00ce\u00b1": 1529,
  "\u00e5\u00b0": 1530,
  "\u0120\u00c3\u0142": 1531,
  "imes": 1532,
  "\u0120ret": 1533,
  "\u0120chang": 1534,
  "\u0120pub": 1535,
  "\u0120inf": 1536,
  "\u0120techn": 1537,
  "ada": 1538,
  "ives": 1539,
  "\u0120beh": 1540,
  "\u00e6\u013a\u00af": 1541,
  "\u0120looks": 1542,
  "\u00e3\u0122\u0124": 1543,
  "\u00d0\u00b7": 1544,
  "\u0120Why": 1545,
  "\u00e7\u013c\u0126": 1546,
  "\u0120enough": 1547,
  "\u0120bra": 1548,
  "itch": 1549,
  "\u00e4\u00bb": 1550,
  "\u0120adv": 1551,
  "\u00d0\u00b1": 1552,
  "\u0120without": 1553,
  "wer": 1554,
  "meric": 1555,
  "den": 1556,
  "\u0120complet": 1557,
  "\u0120idea": 1558,
  "ters": 1559,
  "ock": 1560,
  "\u0120defin": 1561,
  "\u0120ever": 1562,
  "\u0120gl": 1563,
  "\u0120once": 1564,
  "\u0120bring": 1565,
  "\u0120saying": 1566,
  "\u0120ans": 1567,
  "\u0120hear": 1568,
  "nect": 1569,
  "\u0120less": 1570,
  "go": 1571,
  "ream": 1572,
  "ado": 1573,
  "\u00ec\u0140": 1574,
  "\u0120mind": 1575,
  "ente": 1576,
  "\u0120full": 1577,
  "\u0120bad": 1578,
  "\u0120wom": 1579,
  "\u0120someone": 1580,
  "\u0120du": 1581,
  "\u0120won": 1582,
  "\u0120contro": 1583,
  "ortun": 1584,
  "\u0120health": 1585,
  "\u0120cho": 1586,
  "\u0120Ar": 1587,
  "\u0120conc": 1588,
  "\u0120information": 1589,
  "\u0120stop": 1590,
  "att": 1591,
  "ately": 1592,
  "\u00e4\u00bd": 1593,
  "\u0120group": 1594,
  "\u0120\u00d1\u0125": 1595,
  "\u0120quite": 1596,
  "\u0120resp": 1597,
  "ER": 1598,
  "ught": 1599,
  "\u00ea\u00b8": 1600,
  "man": 1601,
  "ized": 1602,
  "\u0120Br": 1603,
  "\u0120remember": 1604,
  "\u0120family": 1605,
  "\u0120business": 1606,
  "aw": 1607,
  "\u0120spec": 1608,
  "\u0120au": 1609,
  "\u0120Or": 1610,
  "\u00c4\u0127": 1611,
  "\u0120seen": 1612,
  "\u0120lar": 1613,
  "\u01207": 1614,
  "gg": 1615,
  "bers": 1616,
  "\u0120dra": 1617,
  "\u0120month": 1618,
  "\u0120says": 1619,
  "\u0120iss": 1620,
  "\u0120live": 1621,
  "\u0120line": 1622,
  "\u0120moment": 1623,
  "\u0120exc": 1624,
  "els": 1625,
  "\u0120sound": 1626,
  "\u0120cool": 1627,
  "\u0120loc": 1628,
  "\u0120certain": 1629,
  "\u0120dri": 1630,
  "\u00d0\u00be\u00d1\u0124": 1631,
  "ames": 1632,
  "\u0120must": 1633,
  "ny": 1634,
  "\u00d0\u00b8\u00d1\u0124": 1635,
  "\u0120kid": 1636,
  "\u0120includ": 1637,
  "\u00ec\u013f\u0126": 1638,
  "ator": 1639,
  "\u00c4\u0141": 1640,
  "ha": 1641,
  "ared": 1642,
  "\u0120seem": 1643,
  "\u00d0\u00b9": 1644,
  "\u00ec\u0126": 1645,
  "\u0120else": 1646,
  "\u0120\u00ec\u0142": 1647,
  "irl": 1648,
  "\u01208": 1649,
  "\u0120vo": 1650,
  "\u0120questions": 1651,
  "ines": 1652,
  "ee": 1653,
  "\u00e6\u012a\u0133": 1654,
  "\u00c3\u00bcr": 1655,
  "\u0120Americ": 1656,
  "\u0120story": 1657,
  "\u0120serv": 1658,
  "vern": 1659,
  "ages": 1660,
  "land": 1661,
  "\u0120\u00e2\u0122\u0135": 1662,
  "era": 1663,
  "\u0120Can": 1664,
  "\u0120pop": 1665,
  "ether": 1666,
  "\u0120na": 1667,
  "\u0120order": 1668,
  "\u0120makes": 1669,
  "\u0120since": 1670,
  "con": 1671,
  "ctor": 1672,
  "\u0120though": 1673,
  "\u0120product": 1674,
  "\u00d0\u00bb\u00d0\u00b8": 1675,
  "\u0120leg": 1676,
  "\u0120meet": 1677,
  "alf": 1678,
  "\u00d1\u0123\u00d1\u0131": 1679,
  "unch": 1680,
  "iter": 1681,
  "ove": 1682,
  "\u00d7\u0137\u00d7": 1683,
  "iet": 1684,
  "\u00d0\u00b0\u00d0\u00bc": 1685,
  "ital": 1686,
  "\u0120super": 1687,
  "ling": 1688,
  "\u0120pay": 1689,
  "\u0120para": 1690,
  "\u0120job": 1691,
  "\u0120Here": 1692,
  "\u0120sw": 1693,
  "ks": 1694,
  "ption": 1695,
  "ma": 1696,
  "\u0120believe": 1697,
  "\u00ac\u00eb": 1698,
  "\u0120wait": 1699,
  "\u00d0\u00be\u00d0\u00b9": 1700,
  "\u0120unt": 1701,
  "\u0120quick": 1702,
  "hr": 1703,
  "\u0120\u00d1\u012f": 1704,
  "\u0120Pro": 1705,
  "\u0120men": 1706,
  "\u00e0\u00b9": 1707,
  "\u0120days": 1708,
  "\u0120goes": 1709,
  "\u0120speak": 1710,
  "\u0120At": 1711,
  "ement": 1712,
  "\u0120miss": 1713,
  "\u0120aw": 1714,
  "\u0120design": 1715,
  "\u0120project": 1716,
  "\u00d0\u00be\u00d1\u0122": 1717,
  "ij": 1718,
  "ants": 1719,
  "ats": 1720,
  "\u0120Chr": 1721,
  "\u01209": 1722,
  "\u0120cut": 1723,
  "\u0120requ": 1724,
  "\u0120\u00d0\u00bd\u00d0\u00b5": 1725,
  "\u0120Not": 1726,
  "aster": 1727,
  "\u0120mill": 1728,
  "\u0120particular": 1729,
  "\u0120pie": 1730,
  "\u0120students": 1731,
  "\u0120five": 1732,
  "oun": 1733,
  "\u0120Ne": 1734,
  "\u0120gi": 1735,
  "\u0120pas": 1736,
  "\u0120free": 1737,
  "\u0120Sp": 1738,
  "lich": 1739,
  "\u0120prof": 1740,
  "\u0120eng": 1741,
  "\u0120prot": 1742,
  "\u0120Like": 1743,
  "osed": 1744,
  "\u0120connect": 1745,
  "app": 1746,
  "\u0120\u00eb\u00a7": 1747,
  "iting": 1748,
  "\u0120blo": 1749,
  "\u0120los": 1750,
  "ists": 1751,
  "\u0120experience": 1752,
  "rent": 1753,
  "\u0120stay": 1754,
  "\u0120food": 1755,
  "ton": 1756,
  "ruct": 1757,
  "\u0120hist": 1758,
  "view": 1759,
  "ining": 1760,
  "most": 1761,
  "ivers": 1762,
  "bo": 1763,
  "\u00e3\u0123\u0126": 1764,
  "\u0120Tr": 1765,
  "gen": 1766,
  "\u0120please": 1767,
  "\u0120community": 1768,
  "\u0120ce": 1769,
  "AN": 1770,
  "no": 1771,
  "\u0120body": 1772,
  "\u0120hour": 1773,
  "\u0120vers": 1774,
  "\u00e1\u00ba": 1775,
  "cer": 1776,
  "\u0120\u00ea\u00b0": 1777,
  "\u0120reason": 1778,
  "\u0120Right": 1779,
  "\u0120later": 1780,
  "\u00cf\u0126": 1781,
  "\u0120house": 1782,
  "\u0120X": 1783,
  "\u00d0\u00be\u00d0\u00bd": 1784,
  "\u0120state": 1785,
  "fic": 1786,
  "\u00e5\u00a4": 1787,
  "\u00c5\u013d": 1788,
  "ield": 1789,
  "\u0120pri": 1790,
  "\u0120past": 1791,
  "\u0120walk": 1792,
  "ology": 1793,
  "ering": 1794,
  "anna": 1795,
  "\u0120ter": 1796,
  "\u0120hold": 1797,
  "\u0120organ": 1798,
  "ben": 1799,
  "\u00ce\u00bf": 1800,
  "\u00c3\u00b3n": 1801,
  "\u0120effect": 1802,
  "\u0120yourself": 1803,
  "\u0120plus": 1804,
  "aj": 1805,
  "ando": 1806,
  "ural": 1807,
  "\u0120room": 1808,
  "lect": 1809,
  "\u00ea\u00b2\u012e": 1810,
  "?\"": 1811,
  "side": 1812,
  "\u0120become": 1813,
  "\u00d1\u0128": 1814,
  "\u0120\u00c2": 1815,
  "ood": 1816,
  "\u0120const": 1817,
  "\u0120night": 1818,
  "utes": 1819,
  "\u00d0\u00b6": 1820,
  "\u0120break": 1821,
  "\u0120pain": 1822,
  "\u0120step": 1823,
  "ired": 1824,
  "\u0120nothing": 1825,
  "\u0120until": 1826,
  "\u00d1\u0138": 1827,
  "\u00d0\u00b0\u00d0\u00b2": 1828,
  "\u00d9\u012c": 1829,
  "\u0120during": 1830,
  "\u00ec\u00a7\u0122": 1831,
  "less": 1832,
  "oll": 1833,
  "\u00d0\u00bd\u00d1\u012d": 1834,
  "\u00ce\u00b9": 1835,
  "fect": 1836,
  "iver": 1837,
  "\u0131\u0126": 1838,
  "ither": 1839,
  "ying": 1840,
  "\u0120begin": 1841,
  "\u00d7\u013b\u00d7": 1842,
  "ivid": 1843,
  "\u0120\u00c3\u00a7": 1844,
  "\u0120sal": 1845,
  "\u0120ta": 1846,
  "\u0120pot": 1847,
  "\u0120$": 1848,
  "\u0120mar": 1849,
  "\u0120clear": 1850,
  "\u0120face": 1851,
  "\u0120grow": 1852,
  "\u0120*": 1853,
  "\u0120inside": 1854,
  "\u0120friends": 1855,
  "\u0120leave": 1856,
  "enn": 1857,
  "\u0120easy": 1858,
  "\u0120area": 1859,
  "ality": 1860,
  "oud": 1861,
  "\u0120eat": 1862,
  "\u00d9\u0128": 1863,
  "\u0120pur": 1864,
  "orn": 1865,
  "\u0120saw": 1866,
  "\u0120answer": 1867,
  "\u0120front": 1868,
  "\u0120beaut": 1869,
  "\u00bc\u00eb": 1870,
  "\u0120matter": 1871,
  "\u0120son": 1872,
  "\u0120New": 1873,
  "\u0120result": 1874,
  "ides": 1875,
  "che": 1876,
  "\u0120fut": 1877,
  "ps": 1878,
  "\u0120focus": 1879,
  "\u0120interesting": 1880,
  "\u00e5\u00a5": 1881,
  "\u0120ap": 1882,
  "\".": 1883,
  "\u0120create": 1884,
  "\u00d0\u00be\u00d1\u0123": 1885,
  "\u0120press": 1886,
  "ross": 1887,
  "\u0120pick": 1888,
  "line": 1889,
  "\u0120took": 1890,
  "\u0120May": 1891,
  "row": 1892,
  "\u0120ich": 1893,
  "\u013a\u00eb": 1894,
  "\u0120ref": 1895,
  "\u0120mor": 1896,
  "ract": 1897,
  "arent": 1898,
  "AR": 1899,
  "\u0120exact": 1900,
  "\u0120space": 1901,
  "work": 1902,
  "\u00d0\u00bd\u00d0\u00b8": 1903,
  "\u0120bir": 1904,
  "\u0120dev": 1905,
  "\u00d0\u00b3": 1906,
  "\u0120told": 1907,
  "\u0120public": 1908,
  "cially": 1909,
  "\u0120view": 1910,
  "\u0120Hey": 1911,
  "med": 1912,
  "llo": 1913,
  "cc": 1914,
  "\u0120fac": 1915,
  "\u0120couple": 1916,
  "\u0120heart": 1917,
  "ler": 1918,
  "\u0120ready": 1919,
  "\u0120almost": 1920,
  "aring": 1921,
  "\u0120half": 1922,
  "\u0120Me": 1923,
  "avor": 1924,
  "ique": 1925,
  "\u0120charac": 1926,
  "\u0120pract": 1927,
  "ON": 1928,
  "ane": 1929,
  "\u0120il": 1930,
  "\u00d0\u00bd\u00d0\u00b0": 1931,
  "\u0120vi": 1932,
  "lish": 1933,
  "head": 1934,
  "\u0120least": 1935,
  "\u0120basically": 1936,
  "ased": 1937,
  "right": 1938,
  "\u0120yet": 1939,
  "\u0120taking": 1940,
  "\u0120country": 1941,
  "\u0120win": 1942,
  "\u0120isn": 1943,
  "\u0120possible": 1944,
  "\u0120cam": 1945,
  "\u0120incre": 1946,
  "\u0120pat": 1947,
  "\u0120wanna": 1948,
  "\u0120consider": 1949,
  "\u0120abs": 1950,
  "\u0120within": 1951,
  "\u0120human": 1952,
  "\u0120thinking": 1953,
  "\u0120oh": 1954,
  "\u00a1\u013e": 1955,
  "\u0120qui": 1956,
  "ases": 1957,
  "\u01200": 1958,
  "itely": 1959,
  "\u00e4\u00b8\u012f": 1960,
  "\u0120kill": 1961,
  "\u0120mil": 1962,
  "\u0120invest": 1963,
  "ister": 1964,
  "\u0120suc": 1965,
  "ional": 1966,
  "elf": 1967,
  "\u0120whether": 1968,
  "\u0120control": 1969,
  "\u0120against": 1970,
  "ots": 1971,
  "\u00eb\u012d\u012a\u00eb\u012d\u00a4": 1972,
  "ior": 1973,
  "\u0120present": 1974,
  "\u0120\u00d8\u00a7": 1975,
  "\u0120watching": 1976,
  "ube": 1977,
  "erv": 1978,
  "\u0120nicht": 1979,
  "\u0120govern": 1980,
  "\u0120These": 1981,
  "\u0120:": 1982,
  "uit": 1983,
  "ugh": 1984,
  "\u0120works": 1985,
  "oo": 1986,
  "\u0120wir": 1987,
  "\u0120air": 1988,
  "\u0120Te": 1989,
  "\u00d0\u00b0\u00d0\u00b7": 1990,
  "ision": 1991,
  "where": 1992,
  "\u0120tot": 1993,
  "joy": 1994,
  "\u00ec\u012d": 1995,
  "\u0120vol": 1996,
  "\u0120\u00d0\u00b5": 1997,
  "\u0120close": 1998,
  "\u0120Ad": 1999,
  "\u00d1\u012b": 2000,
  "ined": 2001,
  "\u0120una": 2002,
  "\u0120\u00ea\u00b7\u00b8\u00eb": 2003,
  "\u00b0\u00eb": 2004,
  "orry": 2005,
  "\u0120bro": 2006,
  "\u0120film": 2007,
  "ift": 2008,
  "20": 2009,
  "\u0120type": 2010,
  "\u0120happened": 2011,
  "\u0120Am": 2012,
  "\u0120girl": 2013,
  "\u0120Are": 2014,
  "wards": 2015,
  "\u0120pour": 2016,
  "\u0120color": 2017,
  "elt": 2018,
  "\u00d0\u00b0\u00d1\u0123": 2019,
  "\u0120sense": 2020,
  "lex": 2021,
  "\u0120With": 2022,
  "uss": 2023,
  "rib": 2024,
  "\u0120rese": 2025,
  "\u0120norm": 2026,
  "\u0120future": 2027,
  "\u0120deal": 2028,
  "ending": 2029,
  "ey": 2030,
  "\u0120x": 2031,
  "ero": 2032,
  "\u0120Cl": 2033,
  "uk": 2034,
  "\u0120whatever": 2035,
  "selves": 2036,
  "\u0120young": 2037,
  "\u00ec\u012c": 2038,
  "\u0120Mar": 2039,
  "\u0120Christ": 2040,
  "\u0120guess": 2041,
  "\u0120perform": 2042,
  "\u0120ener": 2043,
  "ron": 2044,
  "\u0120hit": 2045,
  "\u0120wond": 2046,
  "\u0120direct": 2047,
  "\u0120Every": 2048,
  "\u0120often": 2049,
  "\u0120fa": 2050,
  "\u0120along": 2051,
  "\u0120click": 2052,
  "\u0120Look": 2053,
  "\u0120situ": 2054,
  "\u0120happy": 2055,
  "ead": 2056,
  "\u0120ago": 2057,
  "\u0120enc": 2058,
  "\u0120myself": 2059,
  "\u0120cover": 2060,
  "\u00d0\u00be\u00d0\u00b1": 2061,
  "\u0120mid": 2062,
  "\u0120cost": 2063,
  "\u0120ten": 2064,
  "\u0120Sch": 2065,
  "\u0120expect": 2066,
  "\u0120wasn": 2067,
  "\u0120strong": 2068,
  "iful": 2069,
  "\u0120opportun": 2070,
  "inal": 2071,
  "yle": 2072,
  "\u0120share": 2073,
  "\u0120true": 2074,
  "\u0120appro": 2075,
  "\u0120chall": 2076,
  "\u0120minutes": 2077,
  "\u0120chann": 2078,
  "\u0120\u00eb\u0124": 2079,
  "\u00ce\u00b5": 2080,
  "li": 2081,
  "\u0120mess": 2082,
  "ories": 2083,
  "pecially": 2084,
  "\u0120wrong": 2085,
  "\u0120yes": 2086,
  "\u0120\u00ec\u0139": 2087,
  "iron": 2088,
  "\u0120allow": 2089,
  "\u0120subs": 2090,
  "\u0120fore": 2091,
  "\u0120fight": 2092,
  "\u0120social": 2093,
  "\u0120cra": 2094,
  "ana": 2095,
  "\u0120aff": 2096,
  "\u0120ess": 2097,
  "\u0120ways": 2098,
  "\u0120short": 2099,
  "\u0120fall": 2100,
  "\u0120law": 2101,
  "\u0120Who": 2102,
  "\u0120enjoy": 2103,
  "\u0120cal": 2104,
  "\u0120access": 2105,
  "fe": 2106,
  "\u0120non": 2107,
  "\u0120across": 2108,
  "ery": 2109,
  "viously": 2110,
  "\u0120Ex": 2111,
  "ided": 2112,
  "\u0120link": 2113,
  "\u0120Pr": 2114,
  "\u0120terms": 2115,
  "aces": 2116,
  "\u0120land": 2117,
  "azing": 2118,
  "\u012015": 2119,
  "\u0120mult": 2120,
  "\u0120special": 2121,
  "\u00e5\u0122": 2122,
  "iving": 2123,
  "\u00ec\u013f\u0122": 2124,
  "\u0120typ": 2125,
  "\u0120ste": 2126,
  "\u0120\u00c4": 2127,
  "\u0120forward": 2128,
  "\u00e5\u0131": 2129,
  "\u0120fre": 2130,
  "\u00e5\u00a5\u00bd": 2131,
  "\u0120research": 2132,
  "\u00e0\u00af\u012f": 2133,
  "\u00d0\u00b0\u00d1\u0124": 2134,
  "\u0120main": 2135,
  "\u0120record": 2136,
  "\u0120hu": 2137,
  "\u0120definitely": 2138,
  "\u0120either": 2139,
  "\u0120listen": 2140,
  "\u0120key": 2141,
  "\u0120market": 2142,
  "\u0120\u00d1\u0129\u00d1\u0124\u00d0\u00be": 2143,
  "ization": 2144,
  "\u0120videos": 2145,
  "\u0120guy": 2146,
  "\u0120fig": 2147,
  "\u0120stra": 2148,
  "\u0120Pl": 2149,
  "ully": 2150,
  "amos": 2151,
  "\u0120mention": 2152,
  "\u0120song": 2153,
  "\u0120intern": 2154,
  "ral": 2155,
  "urs": 2156,
  "\u0120hon": 2157,
  "\u0120value": 2158,
  "\u0120bar": 2159,
  "cle": 2160,
  "\u00d0\u00be\u00d0\u00b6": 2161,
  "\u00c4\u0129": 2162,
  "\u013e\u00eb": 2163,
  "\u0120zu": 2164,
  "\u00d0\u00b8\u00d0\u00bc": 2165,
  "\u00e4\u00bd\u0142": 2166,
  "\u0120single": 2167,
  "\u0120auch": 2168,
  "cuss": 2169,
  "\u0120gets": 2170,
  "\u0120sometimes": 2171,
  "\u00e5\u00be": 2172,
  "amb": 2173,
  "mm": 2174,
  "cing": 2175,
  "\u0120perfect": 2176,
  "\u0120Bl": 2177,
  "outh": 2178,
  "\u00ec\u0142": 2179,
  "\u0120sci": 2180,
  "par": 2181,
  "\u0120red": 2182,
  "\u0120post": 2183,
  "\u0120mot": 2184,
  "\u0120elect": 2185,
  "\u0120Eu": 2186,
  "itive": 2187,
  "\u0120Some": 2188,
  "\u0120descri": 2189,
  "\u0120current": 2190,
  "\u00c3\u00a9s": 2191,
  "\u0120tre": 2192,
  "\u0120En": 2193,
  "\u0120mit": 2194,
  "EN": 2195,
  "\u012a\u00eb": 2196,
  "ium": 2197,
  "\u0120heard": 2198,
  "\u0120simple": 2199,
  "lar": 2200,
  "\u0120everybody": 2201,
  "ilar": 2202,
  "\u0120needs": 2203,
  "\u0120diffic": 2204,
  "\u0120Good": 2205,
  "ument": 2206,
  "cent": 2207,
  "\u0120oper": 2208,
  "\u00d0\u00b0\u00d1\u0124\u00d1\u012e": 2209,
  "ety": 2210,
  "\u0120black": 2211,
  "\u0120given": 2212,
  "ones": 2213,
  "\u0120wel": 2214,
  "\u00e9\u0122": 2215,
  "\u0120\u00ec\u0137\u0126": 2216,
  "\u012030": 2217,
  "AT": 2218,
  "\u0120stat": 2219,
  "ouch": 2220,
  "\u0120Mr": 2221,
  "\u00d0\u00b0\u00d1\u0122": 2222,
  "\u0120sho": 2223,
  "\u0120cond": 2224,
  "\u00d7\u0136": 2225,
  "my": 2226,
  "\u0120children": 2227,
  "\u0120eu": 2228,
  "\u00d0\u00b5\u00d0\u00b4": 2229,
  "\u00ec\u0137\u0126": 2230,
  "tern": 2231,
  "\u0120uh": 2232,
  "\u0120har": 2233,
  "\u0120prom": 2234,
  "\u0120pull": 2235,
  "rew": 2236,
  "\u0120company": 2237,
  "\u0120beautiful": 2238,
  "ustom": 2239,
  "\u00ed\u0137\u013a": 2240,
  "\u00d0\u00ba\u00d0\u00b8": 2241,
  "\u0120stre": 2242,
  "\u0120amazing": 2243,
  "ries": 2244,
  "\u0120success": 2245,
  "\u0120mach": 2246,
  "not": 2247,
  "\u0120discuss": 2248,
  "\u0120nat": 2249,
  "\u00a6\u00ac": 2250,
  "\u0120une": 2251,
  "\u0120difficult": 2252,
  "\u0120ris": 2253,
  "\u00ce\u00bd": 2254,
  "\u0120camp": 2255,
  "\u0120buy": 2256,
  "\u00e4\u00b8\u0122": 2257,
  "\u0120mag": 2258,
  "po": 2259,
  "\u0120Your": 2260,
  "\u0120behind": 2261,
  "ica": 2262,
  "\u00c4\u00b1n": 2263,
  "\u0120OK": 2264,
  "\u0120lang": 2265,
  "\u0120women": 2266,
  "\u0120env": 2267,
  "\u0120rece": 2268,
  "\u0120channel": 2269,
  "ially": 2270,
  "ule": 2271,
  "\u012012": 2272,
  "thers": 2273,
  "\u0120bott": 2274,
  "\u0120report": 2275,
  "ently": 2276,
  "fully": 2277,
  "The": 2278,
  "\u0120sent": 2279,
  "\u0120event": 2280,
  "\u0120energy": 2281,
  "lt": 2282,
  "\u0120words": 2283,
  "arr": 2284,
  "dle": 2285,
  "\u0120ahead": 2286,
  "ards": 2287,
  "\u00d8\u00b1": 2288,
  "\u00e4\u00ba\u0128": 2289,
  "\u0120tool": 2290,
  "conom": 2291,
  "\u00d0\u00b5\u00d1\u0123": 2292,
  "\u0120exactly": 2293,
  "\u0120favor": 2294,
  "\u0120low": 2295,
  "\u0120proper": 2296,
  "\u0120\u00ec\u0140\u012a": 2297,
  "\u0120!": 2298,
  "\u0120relations": 2299,
  "\u0120mas": 2300,
  "\u0120kids": 2301,
  "\u0120entire": 2302,
  "ude": 2303,
  "\u00d9\u0127": 2304,
  "\u0120Where": 2305,
  "\u0120ones": 2306,
  "\u0120city": 2307,
  "olut": 2308,
  "\u0120six": 2309,
  "ability": 2310,
  "\u00c3\u00b6r": 2311,
  "ili": 2312,
  "\u0120Es": 2313,
  "\u0120happens": 2314,
  "ains": 2315,
  "\u0120model": 2316,
  "\u0120pict": 2317,
  "\u0120especially": 2318,
  "\u0120100": 2319,
  "kt": 2320,
  "\u0120soon": 2321,
  "by": 2322,
  "rodu": 2323,
  "\u0120ann": 2324,
  "\u0120subscri": 2325,
  "\u0120Qu": 2326,
  "\u0120avail": 2327,
  "iment": 2328,
  "\u0120voc": 2329,
  "ka": 2330,
  "\u0120200": 2331,
  "aper": 2332,
  "\u0120Ind": 2333,
  "\u0120\u00ec\u00a7": 2334,
  "hor": 2335,
  "\u012f\u00b0": 2336,
  "jor": 2337,
  "\u00d0\u00b8\u00d0\u00bb": 2338,
  "\u0120squ": 2339,
  "AU": 2340,
  "arning": 2341,
  "\u0120\u00d0\u00b3": 2342,
  "IS": 2343,
  "\u0120\u00d0\u00bb": 2344,
  "\u00d0\u00b5\u00d0\u00b9": 2345,
  "yes": 2346,
  "\u00e5\u0127": 2347,
  "\u0120\u00d0\u0134": 2348,
  "\u0120orig": 2349,
  "\u00d0\u00be\u00d0\u00b3\u00d0\u00be": 2350,
  "\u0120asked": 2351,
  "ilt": 2352,
  "\u00d0\u00be\u00d0\u00b3": 2353,
  "\u0120continue": 2354,
  "\u0120\u00ec\u013a": 2355,
  "ram": 2356,
  "\u0120others": 2357,
  "ES": 2358,
  "ohn": 2359,
  "\u0120lay": 2360,
  "\u0120based": 2361,
  "\u0120pu": 2362,
  "\u0120appe": 2363,
  "\u0120lim": 2364,
  "\u0120prop": 2365,
  "\u0122\u00eb": 2366,
  "min": 2367,
  "\u0120hot": 2368,
  "\u0120La": 2369,
  "\u0120fast": 2370,
  "\u0120protect": 2371,
  "\u0120amount": 2372,
  "\u0120aqu": 2373,
  "\u0120fund": 2374,
  "\u0120custom": 2375,
  "\u0120cult": 2376,
  "\u0120hands": 2377,
  "\u0120haven": 2378,
  "\u0120aud": 2379,
  "\u0120outside": 2380,
  "\u0120After": 2381,
  "aps": 2382,
  "\u0120anim": 2383,
  "ploy": 2384,
  "\u0120hat": 2385,
  "\u0120First": 2386,
  "\u0120treat": 2387,
  "\u0120ep": 2388,
  "\u0120mater": 2389,
  "\u0120building": 2390,
  "\u0120\u00eb\u00b0": 2391,
  "\u00e5\u0132": 2392,
  "\u00ec\u0126\u013e": 2393,
  "za": 2394,
  "ughter": 2395,
  "\u0120Pe": 2396,
  "ney": 2397,
  "eter": 2398,
  "atic": 2399,
  "\u0120educ": 2400,
  "\u00ea\u00b8\u00b0": 2401,
  "\u0120mov": 2402,
  "\u0135\u00a4": 2403,
  "ama": 2404,
  "ration": 2405,
  "\u0120sn": 2406,
  "\u00d9\u012a": 2407,
  "\u0120sum": 2408,
  "\u0120phot": 2409,
  "\u0120\u00d0\u013f": 2410,
  "\u0120.": 2411,
  "\u00e6\u013e\u012b": 2412,
  "\u0120finish": 2413,
  "itting": 2414,
  "\u00e5\u00ae": 2415,
  "\u0120large": 2416,
  "\u0120\u00ec\u0138": 2417,
  "\u0120white": 2418,
  "ara": 2419,
  "\u0120mais": 2420,
  "\u0120Hi": 2421,
  "\u0120dam": 2422,
  "\u0120\u00d8\u00a7\u00d9\u0126": 2423,
  "\u0120box": 2424,
  "\u0120Hello": 2425,
  "\u0120sle": 2426,
  "\u0120opt": 2427,
  "ried": 2428,
  "\u00a5\u00bc": 2429,
  "\u0120activ": 2430,
  "\u0120n\u00c3\u00a3o": 2431,
  "\u0120Com": 2432,
  "\u0120playing": 2433,
  "Th": 2434,
  "\u0120available": 2435,
  "\u0120port": 2436,
  "\u00e5\u012a": 2437,
  "\u0120Ah": 2438,
  "\u0120las": 2439,
  "\u0120early": 2440,
  "\u0120wonder": 2441,
  "\u00b1\u00b0": 2442,
  "\u012018": 2443,
  "cul": 2444,
  "\u0120function": 2445,
  "\u0120morning": 2446,
  "lle": 2447,
  "ients": 2448,
  "ux": 2449,
  "\u0120cir": 2450,
  "itions": 2451,
  "\u0120deep": 2452,
  "\u0120polit": 2453,
  "yor": 2454,
  "mp": 2455,
  "aking": 2456,
  "\u012e\u00eb": 2457,
  "\u0120Man": 2458,
  "\u0120million": 2459,
  "\u0120/": 2460,
  "\u0120individ": 2461,
  "\u0120pan": 2462,
  "\u0120government": 2463,
  "\u0120write": 2464,
  "\u0120Tod": 2465,
  "ament": 2466,
  "\u0120\u00cf": 2467,
  "\u0120wind": 2468,
  "\u0120Eng": 2469,
  "chen": 2470,
  "Wh": 2471,
  "\u00ec\u013e": 2472,
  "\u0120ident": 2473,
  "\u00e3\u0123\u00a7": 2474,
  "vent": 2475,
  "urch": 2476,
  "\u0120hy": 2477,
  "\u0120ya": 2478,
  "\u0120trad": 2479,
  "\u0120relationship": 2480,
  "\u00c3\u00ba": 2481,
  "\u0120dou": 2482,
  "OR": 2483,
  "\u0120swe": 2484,
  "\u0120neg": 2485,
  "ination": 2486,
  "\u0120text": 2487,
  "ipp": 2488,
  "\u0120fine": 2489,
  "\u00c3\u00a1s": 2490,
  "\u0120Dr": 2491,
  "\u0120Come": 2492,
  "\u0120months": 2493,
  ",\"": 2494,
  "\u00d0\u00b5\u00d0\u00bd\u00d0\u00b8": 2495,
  "\u0120hours": 2496,
  "\u0120pod": 2497,
  "irt": 2498,
  "\u0120invol": 2499,
  "\u0120collect": 2500,
  "\u0120auf": 2501,
  "\u0120pa": 2502,
  "\u0120history": 2503,
  "mb": 2504,
  "ify": 2505,
  "\u0120?": 2506,
  "\u0120below": 2507,
  "asure": 2508,
  "aby": 2509,
  "\u0120langu": 2510,
  "\u0120ant": 2511,
  "\u0120comb": 2512,
  "ato": 2513,
  "\u0120exist": 2514,
  "\u0120\u00eb\u012d": 2515,
  "\u0120takes": 2516,
  "\u0120character": 2517,
  "aff": 2518,
  "\u0120field": 2519,
  "\u0120econom": 2520,
  "ief": 2521,
  "\u0120piece": 2522,
  "\u00e5\u013e": 2523,
  "\u0120reach": 2524,
  "\u0120\u00ea\u00b2": 2525,
  "ony": 2526,
  "\u0120material": 2527,
  "\u0120dig": 2528,
  "\u0120phys": 2529,
  "\u0120impro": 2530,
  "\u0120similar": 2531,
  "IC": 2532,
  "\u0120net": 2533,
  "yn": 2534,
  "\u0120position": 2535,
  "\u00c3\u0141": 2536,
  "\u0120bene": 2537,
  "read": 2538,
  "\u0120learning": 2539,
  "ume": 2540,
  "\u0120clean": 2541,
  "\u00d1\u0124\u00d0\u00be\u00d1\u0122": 2542,
  "\u0120cook": 2543,
  "\u0120seems": 2544,
  "\u0120ol": 2545,
  "\u0120US": 2546,
  "\u0120Jes": 2547,
  "\u0120\u00e0\u00ae": 2548,
  "ential": 2549,
  "iversity": 2550,
  "acy": 2551,
  "\u0120\u00d1\u0131": 2552,
  "olutely": 2553,
  "rect": 2554,
  "\u0120Please": 2555,
  "\u0120repres": 2556,
  "\u0120touch": 2557,
  "men": 2558,
  "\u0120\u00d0\u00b0": 2559,
  "i\u00c3\u00b3n": 2560,
  "\u0120Thanks": 2561,
  "\u0120ang": 2562,
  "\u0120major": 2563,
  "\u0120itself": 2564,
  "ills": 2565,
  "\",": 2566,
  "ians": 2567,
  "\u0120screen": 2568,
  "\u0120hor": 2569,
  "\u0120known": 2570,
  "\u0120environ": 2571,
  "\u0120final": 2572,
  "\u0120figure": 2573,
  "\u0120Tw": 2574,
  "\u0120eyes": 2575,
  "\u0120imag": 2576,
  "\u0120seeing": 2577,
  "\u0120hair": 2578,
  "rem": 2579,
  "\u0120applic": 2580,
  "ends": 2581,
  "put": 2582,
  "\u0120news": 2583,
  "\u0120completely": 2584,
  "ughs": 2585,
  "\u0120knew": 2586,
  "ified": 2587,
  "\u0120Je": 2588,
  "\u0120Did": 2589,
  "\u0120situation": 2590,
  "\u0120flo": 2591,
  "ms": 2592,
  "\u0120phone": 2593,
  "\u0120ball": 2594,
  "do": 2595,
  "\u0120parent": 2596,
  "\u0120sorry": 2597,
  "ury": 2598,
  "\u00d0\u00b8\u00d0\u00bd": 2599,
  "ips": 2600,
  "\u00d0\u00b0\u00d0\u00b4": 2601,
  "\u0120instead": 2602,
  "\u0120huge": 2603,
  "\u0120tu": 2604,
  "\u0120\u00e3\u0123": 2605,
  "\u0120Gr": 2606,
  "\u0120detail": 2607,
  "\u0120\u00d0\u0141": 2608,
  "\u0120individual": 2609,
  "\u0120fire": 2610,
  "\u0120clos": 2611,
  "\u0120wer": 2612,
  "une": 2613,
  "\u0120running": 2614,
  "\u0120convers": 2615,
  "\u0120recomm": 2616,
  "\u0120como": 2617,
  "\u0120somebody": 2618,
  "\u0120John": 2619,
  "\u0120\u00ec\u013f\u00b4": 2620,
  "\u0120Our": 2621,
  "ples": 2622,
  "\u0120Ph": 2623,
  "\u0120anal": 2624,
  "\u012050": 2625,
  "\u0120offer": 2626,
  "\u0120<": 2627,
  "itional": 2628,
  "gest": 2629,
  "\u0120vous": 2630,
  "let": 2631,
  "icy": 2632,
  "\u0120feeling": 2633,
  "LE": 2634,
  "ros": 2635,
  "\u0120third": 2636,
  "\u00d0\u00be\u00d0\u00ba": 2637,
  "\u0120series": 2638,
  "\u0120Any": 2639,
  "ised": 2640,
  "old": 2641,
  "\u0120draw": 2642,
  "\u0120service": 2643,
  "\u0120cannot": 2644,
  "bal": 2645,
  "\u00e3\u0123\u0128": 2646,
  "\u0120living": 2647,
  "\u00c4\u00b1m": 2648,
  "\u0120difference": 2649,
  "\u0120opportunity": 2650,
  "\u0120near": 2651,
  "orth": 2652,
  "ken": 2653,
  "\u0120local": 2654,
  "\u00d8\u00aa": 2655,
  "\u0120Con": 2656,
  "\u0120object": 2657,
  "\u0120dass": 2658,
  "\u00e3\u0123\u013b": 2659,
  "\u0132\u00d7": 2660,
  "\u0120quickly": 2661,
  "raph": 2662,
  "\u0120issues": 2663,
  "\u00e9\u0122\u013b": 2664,
  "\u0120American": 2665,
  "\u0120prep": 2666,
  "ences": 2667,
  "\u0120profess": 2668,
  "lling": 2669,
  "of": 2670,
  "\u0120foot": 2671,
  "bre": 2672,
  "\u0120usually": 2673,
  "\u0120general": 2674,
  "da": 2675,
  "ances": 2676,
  "\u0120dest": 2677,
  "\u0120occ": 2678,
  "\u0120members": 2679,
  "\u0120dans": 2680,
  "\u0120equal": 2681,
  "zt": 2682,
  "\u0120becom": 2683,
  "\u0120moving": 2684,
  "\u0120specific": 2685,
  "\u00c3\u0143a": 2686,
  "\u0120fur": 2687,
  "\u0120necess": 2688,
  "\u0120common": 2689,
  "\u0120attack": 2690,
  "\u0120\u00d1\u012f\u00d1\u0124\u00d0\u00be": 2691,
  "\u0120Today": 2692,
  "\u0120uns": 2693,
  "\u0120Gu": 2694,
  "iod": 2695,
  "\u0120account": 2696,
  "\u0120grand": 2697,
  "\u0120self": 2698,
  "\u0120El": 2699,
  "\u0120tast": 2700,
  "\u0120content": 2701,
  "\u0120cu": 2702,
  "\u0126\u00eb": 2703,
  "\u0120Maybe": 2704,
  "\u0120Jesus": 2705,
  "ores": 2706,
  "port": 2707,
  "\u00a9\u00b4": 2708,
  "\u0120gives": 2709,
  "\u0120normal": 2710,
  "\u00d1\u0122\u00d1\u0125": 2711,
  "\u0120impact": 2712,
  "\u00c3\u00a4r": 2713,
  "\u0120dies": 2714,
  "\u0120lab": 2715,
  "sh": 2716,
  "ios": 2717,
  "\u0120Pres": 2718,
  "\u0120Und": 2719,
  "\u0120Of": 2720,
  "\u0120finally": 2721,
  "\u0120doll": 2722,
  "\u0120voc\u00c3\u00aa": 2723,
  "ply": 2724,
  "\u0120Ag": 2725,
  "\u0120taken": 2726,
  "\u0120ground": 2727,
  "fort": 2728,
  "\u0120gave": 2729,
  "\u0120Inst": 2730,
  "\u0120lost": 2731,
  "\u0120worked": 2732,
  "\u0120liter": 2733,
  "\u0120issue": 2734,
  "\u0120indust": 2735,
  "\u0120return": 2736,
  "\u0120happening": 2737,
  "\u0120wants": 2738,
  "\u00d0\u00b8\u00d0\u00b2": 2739,
  "\u0120problems": 2740,
  "\u0120Car": 2741,
  "\u013f\u00bc": 2742,
  "\u0120Also": 2743,
  "\u0120size": 2744,
  "\u0120obviously": 2745,
  "\u0120Su": 2746,
  "\u0120Sc": 2747,
  "\u0120recommend": 2748,
  "ources": 2749,
  "astic": 2750,
  "....": 2751,
  "\u0120mi": 2752,
  "lier": 2753,
  "\u0120Even": 2754,
  "cia": 2755,
  "\u0120hur": 2756,
  "va": 2757,
  "\u0120mass": 2758,
  "\u0120wouldn": 2759,
  "unt": 2760,
  "cks": 2761,
  "\u0120felt": 2762,
  "osp": 2763,
  "light": 2764,
  "\u00d0\u00be\u00d0\u00bb\u00d1\u012e": 2765,
  "nie": 2766,
  "\u0120bottom": 2767,
  "\u0120\u00d0\u00b1\u00d1\u012d": 2768,
  "ored": 2769,
  "ison": 2770,
  "\u0120grad": 2771,
  "\u0120uma": 2772,
  "\u0120va": 2773,
  "\u0120\u00ec\u0124": 2774,
  "ression": 2775,
  "ulation": 2776,
  "ID": 2777,
  "idence": 2778,
  "\u0120bur": 2779,
  "\u0120gone": 2780,
  "lu": 2781,
  "\u00ec\u0138\u00b4\u00ec": 2782,
  "\u0120redu": 2783,
  "\u0120ja": 2784,
  "\u00ec\u013f\u013a": 2785,
  "ita": 2786,
  "\u0120soft": 2787,
  "\u0120\u00c3\u00a7a": 2788,
  "ico": 2789,
  "eral": 2790,
  "\u00c3\u00b1": 2791,
  "af": 2792,
  "\u0120points": 2793,
  "gu": 2794,
  "\u0120d\u00c3\u00a9": 2795,
  "apt": 2796,
  "ax": 2797,
  "\u0120Alright": 2798,
  "\u0120camera": 2799,
  "\u0120ach": 2800,
  "\u0120\u00d0\u00bf\u00d0\u00be": 2801,
  "\u0120sever": 2802,
  "50": 2803,
  "\u0120sie": 2804,
  "\u00cf\u0123": 2805,
  "\u0120mal": 2806,
  "\u0120comput": 2807,
  "\u0120middle": 2808,
  "\u0120couldn": 2809,
  "ming": 2810,
  "\u0120\u00ec\u012d": 2811,
  "\u0120His": 2812,
  "\u0120games": 2813,
  "\u0120introdu": 2814,
  "\u0120cell": 2815,
  "por": 2816,
  "\u0120sleep": 2817,
  "\u0120\u00eb\u00b3": 2818,
  "iding": 2819,
  "\u0120ou": 2820,
  "\u0120deg": 2821,
  "\u0120drink": 2822,
  "\u0120environment": 2823,
  "\u0120United": 2824,
  "\u0120talked": 2825,
  "\u0120choose": 2826,
  "\u0120jour": 2827,
  "ege": 2828,
  "\u0120Min": 2829,
  "\u0120inte": 2830,
  "\u0120rather": 2831,
  "\u0120offic": 2832,
  "\u00d0\u00ba\u00d0\u00b0": 2833,
  "aching": 2834,
  "\u0120mentioned": 2835,
  "\u0120fill": 2836,
  "\u0120track": 2837,
  "\u0120nie": 2838,
  "\u0120ut": 2839,
  "\u0120\u00d0\u00b2\u00d1\u012d": 2840,
  "ibility": 2841,
  "\u0120vac": 2842,
  "\u0120rad": 2843,
  "\u0120pack": 2844,
  "\u0120send": 2845,
  "\u0120Das": 2846,
  "\u0120Ab": 2847,
  "\u0120engine": 2848,
  "\u00e3\u0123\u0139": 2849,
  "\u0120compet": 2850,
  "\u00c3\u00b4": 2851,
  "\u0120\u00d0\u00b2\u00d1\u0123": 2852,
  "\u0120door": 2853,
  "\u0120longer": 2854,
  "\u00e5\u00b0\u012f": 2855,
  "\u0120language": 2856,
  "\u0120extra": 2857,
  "play": 2858,
  "\u0120webs": 2859,
  "umb": 2860,
  "room": 2861,
  "\u00e7\u013e": 2862,
  "\u0120beginning": 2863,
  "\u0120refer": 2864,
  "AM": 2865,
  "nen": 2866,
  "igher": 2867,
  "face": 2868,
  "erc": 2869,
  "\u0120forget": 2870,
  "\u0120comment": 2871,
  "\u00d0\u00b5\u00d0\u00ba": 2872,
  "\u00d0\u00bb\u00d1\u0131": 2873,
  "ror": 2874,
  "\u00c5\u00bce": 2875,
  "\u0120Ge": 2876,
  "\u0120dark": 2877,
  "\u0120anyone": 2878,
  "ante": 2879,
  "ges": 2880,
  "\u00ec\u012c\u00b5": 2881,
  "\u00d1\u0133": 2882,
  "bed": 2883,
  "je": 2884,
  "ructure": 2885,
  "\u0120prim": 2886,
  "ida": 2887,
  "\u00e8\u00a6": 2888,
  "\u00e3\u0123\u00be": 2889,
  "\u0120mix": 2890,
  "\u0120starting": 2891,
  "\u0120\u00ec\u013f\u00b4\u00eb": 2892,
  "\u0120provide": 2893,
  "action": 2894,
  "\u0120mother": 2895,
  "\u0120period": 2896,
  "\u0120stick": 2897,
  "\u0120YouT": 2898,
  "\u0120technology": 2899,
  "\u00ea\u00b9": 2900,
  "\u0120bed": 2901,
  "\u0120giving": 2902,
  "\u0120explain": 2903,
  "zen": 2904,
  "imate": 2905,
  "\u0120represent": 2906,
  "load": 2907,
  "\u0120However": 2908,
  "\u0120lives": 2909,
  "uth": 2910,
  "irit": 2911,
  "ogn": 2912,
  "\u0120lik": 2913,
  "\u0120respons": 2914,
  "\u0120priv": 2915,
  "\u0120tom": 2916,
  "\u00c3\u00a7\u00c3\u00a3o": 2917,
  "iam": 2918,
  "\u0120excited": 2919,
  "\u0120card": 2920,
  "ground": 2921,
  "\u0120\u00d7\u0136": 2922,
  "\u0120sens": 2923,
  "\u0120teach": 2924,
  "ido": 2925,
  "hod": 2926,
  "\u0120epis": 2927,
  "\u0120welcome": 2928,
  "\u0120wall": 2929,
  "\u00e4\u00b9": 2930,
  "\u0120chance": 2931,
  "hen": 2932,
  "\u0120\u00d0\u00a1": 2933,
  "\u0120\u00c4\u0133": 2934,
  "\u0120simply": 2935,
  "\u0120\u00d1\u0124\u00d0\u00b0\u00d0\u00ba": 2936,
  "ring": 2937,
  "ja": 2938,
  "book": 2939,
  "\u0120several": 2940,
  "ste": 2941,
  "\u0120created": 2942,
  "\u0120\u00d0\u00be\u00d1\u0124": 2943,
  "\u0120push": 2944,
  "==": 2945,
  "\u0120higher": 2946,
  "uf": 2947,
  "ource": 2948,
  "oke": 2949,
  "\u0120online": 2950,
  "\u0120rele": 2951,
  "\u0120ton": 2952,
  "ensive": 2953,
  "\u0120favorite": 2954,
  "\u00d1\u0125\u00d0\u00b4": 2955,
  "\u0120looked": 2956,
  "\u0120von": 2957,
  "\u00e2\u0122\u0136": 2958,
  "\u0120f\u00c3\u00bcr": 2959,
  "\u0120button": 2960,
  "\u0120bill": 2961,
  "\u0120changes": 2962,
  "!\"": 2963,
  "\u0120slow": 2964,
  "ables": 2965,
  "\u0120death": 2966,
  "ands": 2967,
  "ateg": 2968,
  "\u0120themselves": 2969,
  "\u00e3\u0123\u00a3": 2970,
  "\u0120cop": 2971,
  "\u00e3\u0123\u00ae": 2972,
  "\u0120personal": 2973,
  "ughing": 2974,
  "\u012011": 2975,
  "gar": 2976,
  "ades": 2977,
  "\u0120needed": 2978,
  "\u0120study": 2979,
  "aged": 2980,
  "\u00d1\u0123\u00d1\u0124\u00d0\u00b2": 2981,
  "ino": 2982,
  "\u0120disc": 2983,
  "ki": 2984,
  "\u0120address": 2985,
  "\u00d7\u00a8": 2986,
  "itten": 2987,
  "esome": 2988,
  "\u0120\u00d0\u00b6": 2989,
  "\u00a4\u00eb": 2990,
  "ura": 2991,
  "\u0120mu": 2992,
  "\u0120continu": 2993,
  "for": 2994,
  "\u0120match": 2995,
  "\u00e3\u0123\u00a6": 2996,
  "\u0120straight": 2997,
  "\u0132\u00eb": 2998,
  "ners": 2999,
  "\u0120dog": 3000,
  "\u0120deb": 3001,
  "\u0120CO": 3002,
  "\u0120os": 3003,
  "ged": 3004,
  "came": 3005,
  "\u0120correct": 3006,
  "ette": 3007,
  "\u0120See": 3008,
  "\u0120including": 3009,
  "\u0120Euro": 3010,
  "ester": 3011,
  "\u0120jump": 3012,
  "\u0120Which": 3013,
  "\u0120\u00d0\u00ba\u00d0\u00b0\u00d0\u00ba": 3014,
  "son": 3015,
  "ya": 3016,
  "ING": 3017,
  "\u0120eine": 3018,
  "osh": 3019,
  "ency": 3020,
  "\u0120media": 3021,
  "\u0120subscribe": 3022,
  "\u00e9\u0124": 3023,
  "\u0120prin": 3024,
  "\u0120hab": 3025,
  "\u0120Per": 3026,
  "\u0120Was": 3027,
  "\u0120page": 3028,
  "itor": 3029,
  "\u0120towards": 3030,
  "\u0120tried": 3031,
  "enge": 3032,
  "artment": 3033,
  "\u0120vari": 3034,
  "\u0120paper": 3035,
  "\u0120picture": 3036,
  "\u0120version": 3037,
  "\u0120brought": 3038,
  "ware": 3039,
  "\u0120States": 3040,
  "\u0120sich": 3041,
  "ledge": 3042,
  "\u0120percent": 3043,
  "\u0120god": 3044,
  "ec": 3045,
  "\u0120Comm": 3046,
  "\u0120decided": 3047,
  "\u0120select": 3048,
  "\u00ed\u0137\u013e": 3049,
  ").": 3050,
  "urity": 3051,
  "\u0120further": 3052,
  "\u0120comments": 3053,
  "lement": 3054,
  "\u0120dream": 3055,
  "\u0120center": 3056,
  "mi": 3057,
  "\u0120cas": 3058,
  "\u0120woman": 3059,
  "\u0120road": 3060,
  "\u0120fail": 3061,
  "\u0120became": 3062,
  "lus": 3063,
  "ilities": 3064,
  "\u00e3\u0123\u00af": 3065,
  "\u0120Co": 3066,
  "\u0120manage": 3067,
  "\u0120recogn": 3068,
  "\u0120action": 3069,
  "\u0120benef": 3070,
  "\u0120earlier": 3071,
  "\u00d7\u013e": 3072,
  "\u0120speed": 3073,
  "\u0120ment": 3074,
  "\u0120soci": 3075,
  "\u0120shoot": 3076,
  "ui": 3077,
  "\u0120\u00c3\u00a4": 3078,
  "\u0120apply": 3079,
  "vo": 3080,
  "xim": 3081,
  "\u0120cause": 3082,
  "\u0120surpr": 3083,
  "\u0120haben": 3084,
  "DI": 3085,
  "\u0120father": 3086,
  "\u0120Next": 3087,
  "\u0120YouTube": 3088,
  "\u0120code": 3089,
  "\u0120role": 3090,
  "gress": 3091,
  "\u0120green": 3092,
  "ett": 3093,
  "\u0120built": 3094,
  "\u0120flow": 3095,
  "\u0120base": 3096,
  "\u0120training": 3097,
  "\u0120round": 3098,
  "\u0120Will": 3099,
  "\u0120path": 3100,
  "\u0120Ro": 3101,
  "\u0120interested": 3102,
  "\u00ec\u0138\u00b4": 3103,
  "\u0120respect": 3104,
  "\u0120changed": 3105,
  "ission": 3106,
  "\u0120student": 3107,
  "ograph": 3108,
  "\u0120approach": 3109,
  "\u0120shows": 3110,
  "\u00e5\u00b0\u00b1": 3111,
  "\u0120tar": 3112,
  "\u0120crit": 3113,
  "\u0120glo": 3114,
  "\u00ec\u012c\u00b5\u00eb\u012d\u012a\u00eb\u012d\u00a4": 3115,
  "\u0120dead": 3116,
  "\u0120President": 3117,
  "\u0120thous": 3118,
  "\u0120bal": 3119,
  "ster": 3120,
  "ex": 3121,
  "\u0120absolutely": 3122,
  "\u0120mic": 3123,
  "\u0120practice": 3124,
  "\u0120quality": 3125,
  "\u0120lower": 3126,
  "ogle": 3127,
  "\u0120separ": 3128,
  "ball": 3129,
  "medi": 3130,
  "\u0120review": 3131,
  "\u0120App": 3132,
  "\u0120ok": 3133,
  "\u00e2\u0122\u012d": 3134,
  "\u0120experien": 3135,
  "\u0120concern": 3136,
  "entially": 3137,
  "more": 3138,
  "\u0120Jo": 3139,
  "apan": 3140,
  "\u0120Ich": 3141,
  "istic": 3142,
  "\u0120fair": 3143,
  "\u0120website": 3144,
  "ires": 3145,
  "\u0120By": 3146,
  "\u0120travel": 3147,
  "\u0120risk": 3148,
  "\u0120mir": 3149,
  "\u0120board": 3150,
  "\u0120sen": 3151,
  "\u0120parents": 3152,
  "\u0120Wow": 3153,
  "\u0120feed": 3154,
  "\u0120save": 3155,
  "\u0120serious": 3156,
  "\u0120init": 3157,
  "EL": 3158,
  "undred": 3159,
  "AS": 3160,
  "\u0120van": 3161,
  "orrow": 3162,
  "\u0120worth": 3163,
  "\u0120search": 3164,
  "\u012016": 3165,
  "\u0120parts": 3166,
  "\u00d1\u0123\u00d1\u0124\u00d1\u012e": 3167,
  "\u0120compan": 3168,
  "\u0120movie": 3169,
  "\u0120method": 3170,
  "\u0120ill": 3171,
  "\u0120wish": 3172,
  "dy": 3173,
  "\u0120item": 3174,
  "\u0120minus": 3175,
  "anger": 3176,
  "\u0120voice": 3177,
  "\u0120skin": 3178,
  "\u0120areas": 3179,
  "\u0120eight": 3180,
  "\u0120obs": 3181,
  "\u0120,": 3182,
  "\u00d0\u00b0\u00d0\u00b9": 3183,
  "\u0120oil": 3184,
  "\u0120cy": 3185,
  "\u0120baby": 3186,
  "sy": 3187,
  "\u0120employ": 3188,
  "\u0120Ke": 3189,
  "\u0120places": 3190,
  "\u0120fix": 3191,
  "\u0120est\u00c3\u00a1": 3192,
  "\u00e3\u0123\u00a8": 3193,
  "ived": 3194,
  "\u0120lots": 3195,
  "\u0120season": 3196,
  "unk": 3197,
  "alt": 3198,
  "\u0120table": 3199,
  "\u0120\u00d0\u00a2": 3200,
  "\u00c3\u00a2": 3201,
  "\u0120attention": 3202,
  "\u00e3\u0123\u00aa": 3203,
  "\u0120Her": 3204,
  "\u0120age": 3205,
  "\u0120pra": 3206,
  "back": 3207,
  "cil": 3208,
  "\u0120network": 3209,
  "rit": 3210,
  "\u0120doc": 3211,
  "\u0120aren": 3212,
  "igen": 3213,
  "\u0120\u00eb\u0126": 3214,
  "\u00d8\u00af": 3215,
  "ender": 3216,
  "\u0120total": 3217,
  "\u0120price": 3218,
  "\u0120crazy": 3219,
  "\u00ec\u013c": 3220,
  "iqu": 3221,
  "though": 3222,
  "You": 3223,
  "\u00d9\u0129": 3224,
  "\u00e3\u0124\u0135": 3225,
  "\u00cf\u0127": 3226,
  "\u0120sat": 3227,
  "\u0120bi": 3228,
  "\u0120Die": 3229,
  "\u0120sha": 3230,
  "\u0120thanks": 3231,
  "uh": 3232,
  "\u0120stage": 3233,
  "\u00d0\u00b0\u00d0\u00b6": 3234,
  "\u0120Fl": 3235,
  "\u0120leav": 3236,
  "\u0120boy": 3237,
  "\u0120af": 3238,
  "\u00c3\u00b6n": 3239,
  "\u0120Get": 3240,
  "\u0120accept": 3241,
  "\u0120enter": 3242,
  "\u0120tur": 3243,
  "\u0120si\u00c4\u013b": 3244,
  "\u0120honest": 3245,
  "\u00e3\u0122\u012e": 3246,
  "\u0120sam": 3247,
  "\u0120repl": 3248,
  "ging": 3249,
  "\u0120development": 3250,
  "\u0120Act": 3251,
  "ora": 3252,
  "\u00e3\u0122\u012f": 3253,
  "\u00e4\u00be": 3254,
  "\u0120knows": 3255,
  "\u0120image": 3256,
  "\u0120Lord": 3257,
  "\u00d0\u00b8\u00d1\u0124\u00d1\u012e": 3258,
  "\u0120weeks": 3259,
  "\u0120sex": 3260,
  "\u0136\u00eb": 3261,
  "\u0120hundred": 3262,
  "\u0120sounds": 3263,
  "\u0120learned": 3264,
  "\u0120bud": 3265,
  "\u0120\u00d1\u0123\u00d1\u0124": 3266,
  "\u0120incred": 3267,
  "\u00e2\u013b": 3268,
  "\u0120nos": 3269,
  "\u0120drop": 3270,
  "\u0120ben": 3271,
  "\u0120\u00d0\u013a": 3272,
  "\u0120safe": 3273,
  "ata": 3274,
  "\u0120fuck": 3275,
  "soci": 3276,
  "\u0120dan": 3277,
  "\u0120cross": 3278,
  "10": 3279,
  "mo": 3280,
  "vert": 3281,
  "\u012017": 3282,
  "zie": 3283,
  "\u00e5\u0137": 3284,
  "\u0120dom": 3285,
  "\u0120Bo": 3286,
  "\u0120setting": 3287,
  "\u0120involved": 3288,
  "arily": 3289,
  "\u0120sind": 3290,
  "\u0120sus": 3291,
  "\u0120worry": 3292,
  "eth": 3293,
  "\u00ea\u00b9\u012e": 3294,
  "\u0120sun": 3295,
  "\u0120hier": 3296,
  "\u0120certainly": 3297,
  "oul": 3298,
  "orts": 3299,
  "\u0120Er": 3300,
  "\u0120Um": 3301,
  "\u0120caus": 3302,
  "\u0120natural": 3303,
  "\u0120\u00c3\u00bc": 3304,
  "\u0120cry": 3305,
  "\u0120Sec": 3306,
  "\u0120som": 3307,
  "\u00e6\u00b2": 3308,
  "\u0120education": 3309,
  "\u00d0\u00b0\u00d0\u00b5\u00d1\u0124": 3310,
  "\u0120multip": 3311,
  "\u0120alone": 3312,
  "\u0120eye": 3313,
  "\u0120rate": 3314,
  "\u0120Europe": 3315,
  "\u00e8\u00bf": 3316,
  "mon": 3317,
  "\u0120fit": 3318,
  "izing": 3319,
  "pped": 3320,
  "\u0120pressure": 3321,
  "the": 3322,
  "\u00d0\u00b8\u00d1\u0123": 3323,
  "ites": 3324,
  "\u0120Af": 3325,
  "reci": 3326,
  "attle": 3327,
  "\u0120services": 3328,
  "\u0120Google": 3329,
  "\u00e9\u0123": 3330,
  "\u0120cases": 3331,
  "\u0120drive": 3332,
  "\u0120challeng": 3333,
  "uz": 3334,
  "\u0120Mo": 3335,
  "\u00ec\u013e\u00bc\u00eb": 3336,
  "val": 3337,
  "\u00e5\u0122\u012d": 3338,
  "\u0120fol": 3339,
  "\u0120\u00ec\u00a2": 3340,
  "ffic": 3341,
  "\u0120ra": 3342,
  "\u0120sin": 3343,
  "\u0120blue": 3344,
  "\u0120affect": 3345,
  "\u0120mis": 3346,
  "\u0120shot": 3347,
  "\u0120\u00d0\u00be\u00d0\u00b1": 3348,
  "asing": 3349,
  "\u0120signific": 3350,
  "\u0120Che": 3351,
  "\u0120\u00ea\u00b3": 3352,
  "\u0120positive": 3353,
  "\u00ec\u00a3": 3354,
  "\u0120wie": 3355,
  "\u012040": 3356,
  "ording": 3357,
  "\u0120From": 3358,
  "\u00ea\u00b5": 3359,
  "\u0120brand": 3360,
  "\u0120trust": 3361,
  "\u0120ple": 3362,
  "\u0120communic": 3363,
  "\u0120weight": 3364,
  "\u0120asking": 3365,
  "\u0120tax": 3366,
  "\u0120Japan": 3367,
  "\u00e3\u0123\u0141": 3368,
  "\u0120\u00ed\u0137\u013a": 3369,
  "ops": 3370,
  "\u00cf\u0124": 3371,
  "\u0120putting": 3372,
  "\u0120roll": 3373,
  "\u0120America": 3374,
  "reg": 3375,
  "\u0140\u00d7": 3376,
  "atures": 3377,
  "ension": 3378,
  "\u0120Somet": 3379,
  "\u0120original": 3380,
  "ping": 3381,
  "\u0120\u00c5\u0141": 3382,
  "\u0120products": 3383,
  "\u00e3\u0125\u00bc": 3384,
  "\u0120contact": 3385,
  "olution": 3386,
  "\u0120goal": 3387,
  "\u0120pow": 3388,
  "\u0120performance": 3389,
  "\u0120blood": 3390,
  "ators": 3391,
  "\u0120Mich": 3392,
  "\u0120temper": 3393,
  "\u0120Dan": 3394,
  "\u0120sugg": 3395,
  "\u00d1\u0124\u00d0\u00b8": 3396,
  "\u0120imm": 3397,
  "\u0120office": 3398,
  "\u0120arri": 3399,
  "\u0120comfort": 3400,
  "\u0120\u00d0\u0136": 3401,
  "\u0120suggest": 3402,
  "\u0120plat": 3403,
  "\u0124\u013a": 3404,
  "19": 3405,
  "\u0120om": 3406,
  "\u0120seven": 3407,
  "\u0120Cent": 3408,
  "ille": 3409,
  "\u0120concept": 3410,
  "\u0120bag": 3411,
  "\u00c3\u00bcn": 3412,
  "ively": 3413,
  "\u0120div": 3414,
  "mos": 3415,
  "\u00e6\u012b": 3416,
  "\u0120feels": 3417,
  "\u0120ir": 3418,
  "akes": 3419,
  "ley": 3420,
  "\u0120particip": 3421,
  "\u0120\u00d0\u013c": 3422,
  "fl": 3423,
  "just": 3424,
  "\u0120sil": 3425,
  "\u0120Pa": 3426,
  "AL": 3427,
  "\u0120gotta": 3428,
  "\u0120fan": 3429,
  "\u0120challenge": 3430,
  "\u0120companies": 3431,
  "\u0120People": 3432,
  "</": 3433,
  "\u00d0\u00be\u00d0\u00b7": 3434,
  "\u0120pen": 3435,
  "ising": 3436,
  "\u0120aus": 3437,
  "emic": 3438,
  "amente": 3439,
  "\u0120meeting": 3440,
  "\u0120visit": 3441,
  "\u0120supposed": 3442,
  "\u0120Once": 3443,
  "\u00d0\u00b4\u00d0\u00b0": 3444,
  "orld": 3445,
  "30": 3446,
  "US": 3447,
  "\u0120viol": 3448,
  "\u0120notice": 3449,
  "\u0120\u00d0\u0132": 3450,
  "han": 3451,
  "ped": 3452,
  "\u00ec\u013a": 3453,
  "hh": 3454,
  "\u0120trou": 3455,
  "\u0120minute": 3456,
  "\u0120Par": 3457,
  "ray": 3458,
  "\u0120tit": 3459,
  "\u0120upd": 3460,
  "\u0120block": 3461,
  "\u0120due": 3462,
  "aur": 3463,
  "\u0120force": 3464,
  "\u0120coun": 3465,
  "\u0120\u00e2\u0122\u0136": 3466,
  "\u0120types": 3467,
  "\u00eb\u00a7": 3468,
  "\u0120late": 3469,
  "\u0120improve": 3470,
  "\u0120\u00ec\u012a": 3471,
  "\u0120ave": 3472,
  "ules": 3473,
  "cl": 3474,
  "amed": 3475,
  "\u0120awesome": 3476,
  "\u0120Ok": 3477,
  "\u0120vot": 3478,
  "\u0120machine": 3479,
  "\u0120following": 3480,
  "\u0120measure": 3481,
  "aci\u00c3\u00b3n": 3482,
  "uel": 3483,
  "chan": 3484,
  "\u0120ability": 3485,
  "\u0120tout": 3486,
  "\u0120ideas": 3487,
  "\u0120increase": 3488,
  "\u0120ens": 3489,
  "\u0120\u00d1\u0127": 3490,
  "\u0120\u00eb\u00aa": 3491,
  "\u0120jest": 3492,
  "\u0120\u00d0\u013e": 3493,
  "\u0120truth": 3494,
  "hy": 3495,
  "\u0120spend": 3496,
  "\u0120science": 3497,
  "ete": 3498,
  "\u012014": 3499,
  "\u0120episode": 3500,
  "\u0120alg": 3501,
  "ended": 3502,
  "\u00e3\u0123\u0135": 3503,
  "ari": 3504,
  "lla": 3505,
  "\u0120fish": 3506,
  "\u0120throw": 3507,
  "mit": 3508,
  "\u00e5\u00b9": 3509,
  "\u0120circ": 3510,
  "\u0120Cal": 3511,
  "\u0120tour": 3512,
  "\u0120direction": 3513,
  "\u0120noch": 3514,
  "\u00d0\u00b5\u00d0\u00b2": 3515,
  "\u00c3\u00a9n": 3516,
  "\u0120countries": 3517,
  "\u0120industry": 3518,
  "iny": 3519,
  "icle": 3520,
  "\u0120feet": 3521,
  "It": 3522,
  "\u0120leaders": 3523,
  "etzt": 3524,
  "\u0120staff": 3525,
  "\u00e7\u0136": 3526,
  "\u0120purp": 3527,
  "ito": 3528,
  "?!": 3529,
  "\u0120Ja": 3530,
  "\u0120store": 3531,
  "etic": 3532,
  "\u0120China": 3533,
  "\u0120\u00eb\u0132": 3534,
  "\u0120University": 3535,
  "\u0120#": 3536,
  "\u0120decision": 3537,
  "\u0120achie": 3538,
  "\u0120actual": 3539,
  "uly": 3540,
  "\u0120section": 3541,
  "\u0120results": 3542,
  "\u0120star": 3543,
  "\u0120mist": 3544,
  "ibly": 3545,
  "\u0120dad": 3546,
  "\u0120numbers": 3547,
  "omb": 3548,
  "\u00e8\u00aa": 3549,
  "\u0120Spe": 3550,
  "\u0120mer": 3551,
  "\u012025": 3552,
  "\u0120autom": 3553,
  "\u0120cold": 3554,
  "\u00d8\u00a8": 3555,
  "\u0126\u013e": 3556,
  "ager": 3557,
  "\u0120TV": 3558,
  "\u0120Sie": 3559,
  "\u0120Have": 3560,
  "\u0120\u00c5\u00bce": 3561,
  "ugg": 3562,
  "ained": 3563,
  "\u0120upon": 3564,
  "\u0120log": 3565,
  "\u0120complete": 3566,
  "\u0120brain": 3567,
  "aging": 3568,
  "\u0120Mus": 3569,
  "over": 3570,
  "\u0120easier": 3571,
  "\u0120integr": 3572,
  "\u0120m\u00c3\u00a1s": 3573,
  "\u0120turned": 3574,
  "\u0120stri": 3575,
  "ival": 3576,
  "\u0120heav": 3577,
  "\u0120TH": 3578,
  "\u0120writing": 3579,
  "\u00d1\u0122\u00d0\u00b0": 3580,
  "\u00e5\u013e\u00a8": 3581,
  "\u00e5\u00a4\u00a7": 3582,
  "\u0120cla": 3583,
  "ding": 3584,
  "\u0120telling": 3585,
  "\u00d0\u00b8\u00d0\u00b4": 3586,
  "icated": 3587,
  "\u00e4\u00bb\u00a5": 3588,
  "acht": 3589,
  "\u00e3\u0123\u0124": 3590,
  "haps": 3591,
  "\u0120Ste": 3592,
  "\u0120resources": 3593,
  "\u0120dann": 3594,
  "\u0120party": 3595,
  "\u0120\u00cf\u0126": 3596,
  "\u0120saf": 3597,
  "ises": 3598,
  "tre": 3599,
  "oint": 3600,
  "\u0120knowledge": 3601,
  "\u0120anymore": 3602,
  "\u0120fly": 3603,
  "\u0120maint": 3604,
  "\u00d0\u00b8\u00d0\u00ba": 3605,
  "\u00e5\u0133": 3606,
  "\u0120sell": 3607,
  "laughs": 3608,
  "\u0120York": 3609,
  "\u0120bien": 3610,
  "\u0120od": 3611,
  "\u0120easily": 3612,
  "\u0120range": 3613,
  "\u0120option": 3614,
  "\u00d8\u00b9": 3615,
  "\u0120appreci": 3616,
  "ocr": 3617,
  "\u0120determ": 3618,
  "\u00d1\u0126": 3619,
  "\u0120meaning": 3620,
  "\u0120site": 3621,
  "\u0120disco": 3622,
  "verage": 3623,
  "\u0120lose": 3624,
  "\u0120install": 3625,
  "\u0120emot": 3626,
  "antly": 3627,
  "\u00c3\u00a4t": 3628,
  "\u0120tamb": 3629,
  "\u0120War": 3630,
  "\u0120Ho": 3631,
  "\u0120Gen": 3632,
  "emy": 3633,
  "\u00d0\u00b5\u00d0\u00b7": 3634,
  "\u0120Pol": 3635,
  "\u0120message": 3636,
  "\u0120note": 3637,
  "\u012e\u0122": 3638,
  "\u0120het": 3639,
  "\u0120immedi": 3640,
  "\u0120avo": 3641,
  "\u0120books": 3642,
  "\u0120becomes": 3643,
  "resh": 3644,
  "\u00c3\u00a8s": 3645,
  "asons": 3646,
  "\u0120himself": 3647,
  "uts": 3648,
  "\u0120ju": 3649,
  "\u0120aware": 3650,
  "\u0120require": 3651,
  "\u0120systems": 3652,
  "\u0120Har": 3653,
  "\u0120among": 3654,
  "\u0120hom": 3655,
  "\u0120breat": 3656,
  "\u0120weird": 3657,
  "\u0120\u00eb\u00b6": 3658,
  "\u00ce\u00bb": 3659,
  "\u00d8\u00a9": 3660,
  "iff": 3661,
  "oring": 3662,
  "\u0120platform": 3663,
  "\u0120Take": 3664,
  "\u0120helps": 3665,
  "utions": 3666,
  "\u0120forg": 3667,
  "\u0120luck": 3668,
  "\u0120English": 3669,
  "\u0120web": 3670,
  "\u0120negative": 3671,
  "\u0120tut": 3672,
  "\u0120above": 3673,
  "ngth": 3674,
  "\u0120\u00ea\u00b1\u00b0": 3675,
  "\u0120stories": 3676,
  "\u0120load": 3677,
  "\u0120background": 3678,
  "\u0120switch": 3679,
  "ga": 3680,
  "\u0120princi": 3681,
  "\u0120finan": 3682,
  "\u0120various": 3683,
  "\u0120l\u00c3\u0142": 3684,
  "\u0120kinds": 3685,
  "aining": 3686,
  "\u0120nature": 3687,
  "\u0120\u00d0\u0140": 3688,
  "cz": 3689,
  "\u0120pray": 3690,
  "\u0120gar": 3691,
  "irm": 3692,
  "\u0120&": 3693,
  "\u0120\u00ec\u0125": 3694,
  "ns": 3695,
  "\u0120Rep": 3696,
  "\u0120Fe": 3697,
  "\u0120rev": 3698,
  "rand": 3699,
  "\u0120likely": 3700,
  "\u0120understanding": 3701,
  "\u00c4\u00b1r": 3702,
  "\u00e3\u0123\u012d": 3703,
  "\u0120fal": 3704,
  "\u012013": 3705,
  "\u00d1\u0128\u00d0\u00b8": 3706,
  "\u0120sud": 3707,
  "\u0120brother": 3708,
  "\u0120plant": 3709,
  "\u0120throughout": 3710,
  "wise": 3711,
  "pre": 3712,
  "\u0120culture": 3713,
  "\u0120\u00d9\u0127": 3714,
  "\u0120wonderful": 3715,
  "\u0120ah": 3716,
  "pper": 3717,
  "\u0120sold": 3718,
  "\u0120starts": 3719,
  "\u0120written": 3720,
  "\u00ce\u00af": 3721,
  "ni": 3722,
  "\u0120\u00d7\u0136\u00d7": 3723,
  "\u0120Dav": 3724,
  "\u0120ult": 3725,
  "\u0120arm": 3726,
  "\u0120rock": 3727,
  "\u0120wear": 3728,
  "\u00eb\u012f\u00b0": 3729,
  "ano": 3730,
  "rag": 3731,
  "\u0120square": 3732,
  "\u00d0\u00b0\u00d0\u00bd\u00d0\u00b8": 3733,
  "cast": 3734,
  "lebr": 3735,
  "\u0120literally": 3736,
  "\u0120played": 3737,
  "\u0120heat": 3738,
  "onse": 3739,
  "rict": 3740,
  "\u0120insp": 3741,
  "ids": 3742,
  "\u0120popular": 3743,
  "\u00eb\u0131\u0126": 3744,
  "\u0120catch": 3745,
  "\u0120mount": 3746,
  "\u0120jud": 3747,
  "What": 3748,
  "\u00d0\u00b5\u00d0\u00b1": 3749,
  "RA": 3750,
  "aud": 3751,
  "\u00d0\u00ba\u00d0\u00be": 3752,
  "\u0120surface": 3753,
  "\u0120conv": 3754,
  "\u0120pieces": 3755,
  "Oh": 3756,
  "\u00e6\u0122": 3757,
  "\u0120style": 3758,
  "pping": 3759,
  "\u0120reading": 3760,
  "\u0120conversation": 3761,
  "\u00d0\u00be\u00d0\u00bf": 3762,
  "\u00e4\u00be\u0128": 3763,
  "\u0120Again": 3764,
  "\u0120bank": 3765,
  "time": 3766,
  "\u00d1\u0125\u00d1\u0124": 3767,
  "erve": 3768,
  "\u0120Great": 3769,
  "\u0120capt": 3770,
  "\u00d0\u00b0\u00d0\u00b1": 3771,
  "ays": 3772,
  "\u0120Fin": 3773,
  "ification": 3774,
  "\u0120\u00c3\u00a4r": 3775,
  "\u00d0\u00b0\u00d1\u0130": 3776,
  "\u0120egg": 3777,
  "\u0120Wel": 3778,
  "\u0120target": 3779,
  "ula": 3780,
  "ches": 3781,
  "ani": 3782,
  "OO": 3783,
  "icious": 3784,
  "now": 3785,
  "\u00cf\u0125": 3786,
  "board": 3787,
  "\u0120gente": 3788,
  "\u0120dro": 3789,
  "\u0120Et": 3790,
  "\u0120din": 3791,
  "\u0120cos": 3792,
  "\u0120author": 3793,
  "\u00d8\u00b3": 3794,
  "\u0120och": 3795,
  "\u0120email": 3796,
  "\u0120spirit": 3797,
  "\u0120sitting": 3798,
  "mas": 3799,
  "\u0120strength": 3800,
  "\u0120bigger": 3801,
  "\u0120Wait": 3802,
  "\u0120mat": 3803,
  "\u0120police": 3804,
  "ressed": 3805,
  "\u0120waiting": 3806,
  "ishing": 3807,
  "\u0120dollars": 3808,
  "hood": 3809,
  "ss": 3810,
  "\u0120imagine": 3811,
  "ini": 3812,
  "\u0120mes": 3813,
  "\u0120dise": 3814,
  "idge": 3815,
  "abor": 3816,
  "\u0120pet": 3817,
  "\u0120hop": 3818,
  "\u0120King": 3819,
  "\u0120computer": 3820,
  "\u0120gold": 3821,
  "\u0120nu": 3822,
  "\u0120fing": 3823,
  "),": 3824,
  "\u0120security": 3825,
  "ruction": 3826,
  "\u0120solution": 3827,
  "ext": 3828,
  "\u0120patter": 3829,
  "icken": 3830,
  "ured": 3831,
  "\u0120standard": 3832,
  "\u00ec\u012d\u013e": 3833,
  "\u0120double": 3834,
  "\u00ce\u00b7": 3835,
  "\u0120wife": 3836,
  "isa": 3837,
  "\u0120directly": 3838,
  "aced": 3839,
  "\u0120bunch": 3840,
  "\u0120\u00c2\u00bf": 3841,
  "\u00d0\u00b0\u00d0\u00bb\u00d1\u012e": 3842,
  "\u0120regard": 3843,
  "\u0120sweet": 3844,
  "\u0120unique": 3845,
  "\u0120\u00e2\u013b\u00ab": 3846,
  "\u0120train": 3847,
  "\u0120Germ": 3848,
  "\u00ce\u00ac": 3849,
  "RE": 3850,
  "\u0120behav": 3851,
  "\u0120pred": 3852,
  "\u00ec\u0125": 3853,
  "set": 3854,
  "\u0120description": 3855,
  "\u00c3\u00a9e": 3856,
  "\u0120cat": 3857,
  "\u00e5\u0135": 3858,
  "\u0120college": 3859,
  "\u00ec\u013d": 3860,
  "\u0120application": 3861,
  "\u0120Sen": 3862,
  "ask": 3863,
  "\u0120cred": 3864,
  "ublic": 3865,
  "\u0120multiple": 3866,
  "\u0120ni": 3867,
  "\u0120president": 3868,
  "\u0120added": 3869,
  "\u0120rob": 3870,
  "\u0120aqui": 3871,
  "\u0120hosp": 3872,
  "\u0120tools": 3873,
  "\u0120gun": 3874,
  "\u0120basic": 3875,
  "\u0120lines": 3876,
  "\u0120structure": 3877,
  "\u0120Russ": 3878,
  "\u0120totally": 3879,
  "\u0120biggest": 3880,
  "\u0120een": 3881,
  "\u0120arg": 3882,
  "\u0120\u00d7\u013e": 3883,
  "\u0120park": 3884,
  "\u0120Des": 3885,
  "\u0120celebr": 3886,
  "\u0120fait": 3887,
  "\u00d0\u00b5\u00d0\u00bd\u00d1\u012e": 3888,
  "\u0120suff": 3889,
  "\u0120regular": 3890,
  "\u00a8\u00eb": 3891,
  "\u0120mine": 3892,
  "\u0120Kore": 3893,
  "\u0120previous": 3894,
  "\u0120pi": 3895,
  "\u0120seg": 3896,
  "\u0120policy": 3897,
  "\u0120\u00d0\u00ba\u00d0\u00be": 3898,
  "\u0120Trump": 3899,
  "\u0120vacc": 3900,
  "\u00c3\u00b3w": 3901,
  "\u0120Sy": 3902,
  "\u00d0\u00b8\u00d1\u0129": 3903,
  "itter": 3904,
  "\u0120political": 3905,
  "ras": 3906,
  "\u0120als": 3907,
  "\u00d0\u00b5\u00d0\u00bb\u00d1\u012e": 3908,
  "\u0120shape": 3909,
  "anz": 3910,
  "\u0120onto": 3911,
  "\u0120arch": 3912,
  "\u0120amb": 3913,
  "agram": 3914,
  "\u0120Sm": 3915,
  "ctions": 3916,
  "\u0120join": 3917,
  "bor": 3918,
  "\u00e5\u013d": 3919,
  "\u0120frame": 3920,
  "\u0142\u0129": 3921,
  "\u0120choice": 3922,
  "\u00e0\u00af\u0123": 3923,
  "\u00d1\u0125\u00d1\u0130": 3924,
  "\u0120Cor": 3925,
  "\u0120Sw": 3926,
  "IT": 3927,
  "\u0120tend": 3928,
  "\u0120Ear": 3929,
  "\u0120tor": 3930,
  "\u0120events": 3931,
  "\u0120claim": 3932,
  "\u0120Da": 3933,
  "\u0120Mark": 3934,
  "\u0120groups": 3935,
  "\u0120eating": 3936,
  "\u0120World": 3937,
  "\u0120recently": 3938,
  "\u0120taste": 3939,
  "\u0120surv": 3940,
  "\u00e0\u00a4": 3941,
  "\u0120skills": 3942,
  "\u0120\u00d0\u00b8\u00d0\u00b7": 3943,
  "itted": 3944,
  "\u0120shop": 3945,
  "\u00ec\u013f\u00b4\u00ec": 3946,
  "\u0120estab": 3947,
  "\u0120\u00eb\u0124\u013a": 3948,
  "\u0120seconds": 3949,
  "\u0120Those": 3950,
  "\u0120Ent": 3951,
  "\u0120\u00ec\u0126": 3952,
  "erson": 3953,
  "\u0120town": 3954,
  "\u0120cand": 3955,
  "\u0120options": 3956,
  "\u0120ing": 3957,
  "VID": 3958,
  "\u0120encour": 3959,
  "\u0120r\u00c3\u00a9": 3960,
  "\u00e2\u013b\u00aa": 3961,
  "\u0120entre": 3962,
  "\u0120movement": 3963,
  "\u0120Ben": 3964,
  "\u0120birth": 3965,
  "\u0120whe": 3966,
  "\u0120hang": 3967,
  "\u0120Em": 3968,
  "ige": 3969,
  "roll": 3970,
  "\u0120unf": 3971,
  "\u00ec\u0124": 3972,
  "\u0120rid": 3973,
  "\u0120spread": 3974,
  "\u0120host": 3975,
  "ald": 3976,
  "\u0120Ed": 3977,
  "\u0120consum": 3978,
  "UN": 3979,
  "\u0120opin": 3980,
  "itar": 3981,
  "\u0120Med": 3982,
  "\u0120subject": 3983,
  "\u0120pal": 3984,
  "\u0120carry": 3985,
  "\u0120agree": 3986,
  "\u0120While": 3987,
  "\u0120career": 3988,
  "\u0120scient": 3989,
  "\u0120sudden": 3990,
  "\u0120file": 3991,
  "zi": 3992,
  "\u0120except": 3993,
  "\u00e9\u00ba": 3994,
  "\u0120potential": 3995,
  "\u0120Another": 3996,
  "\u0120complex": 3997,
  "\u0120Sim": 3998,
  "endo": 3999,
  "\u0120rais": 4000,
  "\u0120physical": 4001,
  "\u0120date": 4002,
  "aker": 4003,
  "\u0120Col": 4004,
  "\u0120powerful": 4005,
  "\u0120member": 4006,
  "rap": 4007,
  "\u0120spot": 4008,
  "\u0120source": 4009,
  "\u0120fem": 4010,
  "\u00c3\u00a9m": 4011,
  "\u0120emp": 4012,
  "ji": 4013,
  "iety": 4014,
  "\u0120influ": 4015,
  "\u0120dry": 4016,
  "\u0120lock": 4017,
  "\u0120zero": 4018,
  "\u0120Uh": 4019,
  "\u0120rout": 4020,
  "\u0120porque": 4021,
  "\u012024": 4022,
  "\u0120tal": 4023,
  "\u0120folks": 4024,
  "\u0120launch": 4025,
  "\u0120compon": 4026,
  "\u0120Welcome": 4027,
  "\u0120kann": 4028,
  "\u00c3\u00a4n": 4029,
  "\u0120\u00d1\u012f\u00d1\u0124": 4030,
  "ees": 4031,
  "\u0120\u00d9\u012a": 4032,
  "\u0120anyway": 4033,
  "\u0120audience": 4034,
  "\u00e4\u00ba\u00ba": 4035,
  "\u0120slight": 4036,
  "ona": 4037,
  "\u0120ur": 4038,
  "\u0120relig": 4039,
  "\u0120extrem": 4040,
  "\u00c4\u00b1z": 4041,
  "\u0120Ma": 4042,
  "\u00ce\u00bc": 4043,
  "\u0120\u00c3\u00b6": 4044,
  "\u0120allows": 4045,
  "\u0120fat": 4046,
  "\u0120Face": 4047,
  "\u0120national": 4048,
  "\u0120interview": 4049,
  "\u0120Mc": 4050,
  "\u00c3\u00a9t": 4051,
  "\u0120cute": 4052,
  "ela": 4053,
  "\u0120secret": 4054,
  "\u0120West": 4055,
  "\u0120Dep": 4056,
  "\u0120exerc": 4057,
  "\u0120histor": 4058,
  "\u0120prior": 4059,
  "\u012060": 4060,
  "ava": 4061,
  "acher": 4062,
  "yond": 4063,
  "\u0120Ha": 4064,
  "\u0120este": 4065,
  "inary": 4066,
  "\u0120North": 4067,
  "onst": 4068,
  "\u0120smart": 4069,
  "ams": 4070,
  "\u00d0\u00b0\u00d0\u00bb\u00d0\u00b8": 4071,
  "\u0120dar": 4072,
  "ered": 4073,
  "\u0120funny": 4074,
  "\u0120Ob": 4075,
  "\u0120Black": 4076,
  "\u0120related": 4077,
  "\u0120Bu": 4078,
  "\u0120somewhere": 4079,
  "\u0120Rem": 4080,
  "nes": 4081,
  "mente": 4082,
  "\u0120Really": 4083,
  "\u0120creating": 4084,
  "\u0120famil": 4085,
  "\u0120society": 4086,
  "\u0120gel": 4087,
  "\u0120transform": 4088,
  "\u00c4\u0125": 4089,
  "\u0120include": 4090,
  "\u0120hol": 4091,
  "like": 4092,
  "ko": 4093,
  "airs": 4094,
  "\u0120\u00d0\u00bf\u00d0\u00be\u00d0\u00b4": 4095,
  "\u0120perspect": 4096,
  "\u0120bes": 4097,
  "\u0120particularly": 4098,
  "\u0120showing": 4099,
  "\u0120Part": 4100,
  "\u0120qual": 4101,
  "lock": 4102,
  "\u0120reality": 4103,
  "hold": 4104,
  "iction": 4105,
  "oon": 4106,
  "\u0120vir": 4107,
  "\u00e3\u0123\u00ab": 4108,
  "itary": 4109,
  "\u0120drug": 4110,
  "\u0120feature": 4111,
  "\u0120reasons": 4112,
  "\u0120\u00d7\u00a9": 4113,
  "\u0120wrote": 4114,
  "\u0120fant": 4115,
  "\u0120band": 4116,
  "\u00d9\u0125": 4117,
  "ena": 4118,
  "key": 4119,
  "\u0120earth": 4120,
  "dom": 4121,
  "\u0120features": 4122,
  "\u0120floor": 4123,
  "\u0120speaking": 4124,
  "\u0120tip": 4125,
  "\u0120Aust": 4126,
  "\u0120stock": 4127,
  "\u0120church": 4128,
  "\u0120rac": 4129,
  "\u00ec\u013e\u00bc\u00eb\u00a1\u013e": 4130,
  "\u00e0\u00b8\u013b": 4131,
  "\u00e3\u0124\u012e": 4132,
  "ky": 4133,
  "\u0120response": 4134,
  "\u00db\u012e": 4135,
  "ulations": 4136,
  "\u0120slide": 4137,
  "\u0120gradu": 4138,
  "cious": 4139,
  "\u0120meant": 4140,
  "\u0120==": 4141,
  "\u0120\u00d7\u0132\u00d7": 4142,
  "\u00e3\u0127": 4143,
  "\u0120kinda": 4144,
  "\u0120scene": 4145,
  "\u0120muit": 4146,
  "\u0120\u00ea\u00b0\u0122": 4147,
  "rast": 4148,
  "rest": 4149,
  "\u0120players": 4150,
  "wa": 4151,
  "\u0120broad": 4152,
  "\u0120tomorrow": 4153,
  "ocol": 4154,
  "\u0120\u00d1\u0123\u00d0\u00b2": 4155,
  "\u0120Bar": 4156,
  "\u00c4\u00b1k": 4157,
  "\u0120sea": 4158,
  "\u0120remove": 4159,
  "\u0120remind": 4160,
  "\u00d0\u00be\u00d0\u00bc\u00d1\u0125": 4161,
  "\u0120Since": 4162,
  "\u0120avec": 4163,
  "cell": 4164,
  "\u00d0\u00b8\u00d1\u0127": 4165,
  "\u0120document": 4166,
  "\u0120\u00ea\u00b7\u00b8\u00eb\u0141": 4167,
  "\u0120neigh": 4168,
  "beat": 4169,
  "\u0120p\u00c3\u00a5": 4170,
  "\u0120aspect": 4171,
  "\u0120ded": 4172,
  "lished": 4173,
  "ils": 4174,
  "\u0120ourselves": 4175,
  "uce": 4176,
  "\u0120hey": 4177,
  "\u0120\u00d0\u00bf\u00d1\u0122\u00d0\u00be": 4178,
  "enty": 4179,
  "\u0120associ": 4180,
  "ados": 4181,
  "umber": 4182,
  "\u0120]": 4183,
  "\u00e9\u0124\u00a3": 4184,
  "nov": 4185,
  "\u0120\u00ec\u013b": 4186,
  "\u00d1\u0125\u00d1\u0129": 4187,
  "\u0120condition": 4188,
  "\u00eb\u012c\u0136\u00eb\u012f\u00b0": 4189,
  "\u0120values": 4190,
  "\u0120scen": 4191,
  "minist": 4192,
  "\u0120cast": 4193,
  "\u0120growing": 4194,
  "\u0120user": 4195,
  "\u0120respond": 4196,
  "lim": 4197,
  "\u00c3\u00a9r": 4198,
  "ym": 4199,
  "\u00e7\u013e\u012d": 4200,
  "oses": 4201,
  "sych": 4202,
  "\u0120\u00d1\u0122\u00d0\u00b0\u00d0\u00b7": 4203,
  "\u0120appear": 4204,
  "\u0120progress": 4205,
  "ength": 4206,
  "\u0120jak": 4207,
  "\u0120Dis": 4208,
  "\u0120patients": 4209,
  "\u0120Ser": 4210,
  "\u0120gas": 4211,
  "\u00c3\u00a8re": 4212,
  "\u00ec\u0138\u00b4\u00ec\u013c\u0136": 4213,
  "\u0120reci": 4214,
  "\u00ec\u013f\u00b8": 4215,
  "\u0120sca": 4216,
  "epend": 4217,
  "\u00d1\u0123\u00d0\u00ba": 4218,
  "\u00d0\u00b0\u00d0\u00bf": 4219,
  "\u0120batter": 4220,
  "\u0120veh": 4221,
  "\u00f0\u0141": 4222,
  "\u0120accom": 4223,
  "\u0120beat": 4224,
  "\u0120paint": 4225,
  "\u0120contrib": 4226,
  "\u0120sad": 4227,
  "\u00c6\u00b0": 4228,
  "ales": 4229,
  "\u0120tree": 4230,
  "ba": 4231,
  "\u0120born": 4232,
  "iced": 4233,
  "\u00e0\u00ae\u0137": 4234,
  "band": 4235,
  "\u0120mechan": 4236,
  "\u0120Det": 4237,
  "\u0120capital": 4238,
  "\u0120deliver": 4239,
  "\u0120fear": 4240,
  "\u0140\u013a": 4241,
  "\u0120South": 4242,
  "\u0120bought": 4243,
  "\u0120stress": 4244,
  "\u0120vor": 4245,
  "??": 4246,
  "ih": 4247,
  "\u00ec\u0137\u00bc": 4248,
  "\u0120era": 4249,
  "\u00ec\u013f\u00b4\u00eb": 4250,
  "\u00d0\u00b0\u00d1\u0131": 4251,
  "isions": 4252,
  "ivity": 4253,
  "\u0120helped": 4254,
  "\u0120assist": 4255,
  "\u0120player": 4256,
  "ran": 4257,
  "\u0120immediately": 4258,
  "\u0120moved": 4259,
  "cie": 4260,
  "\u00ea\u00b1": 4261,
  "\u0120announ": 4262,
  "\u00e5\u00bf": 4263,
  "\u00ec\u0140\u0132": 4264,
  "\u0120production": 4265,
  "\u0120summer": 4266,
  "\u0120tun": 4267,
  "\u0120programs": 4268,
  "GH": 4269,
  "aling": 4270,
  "ira": 4271,
  "eless": 4272,
  ".)": 4273,
  "\u0120average": 4274,
  "\u00e8\u00a6\u0123": 4275,
  "\u0120glass": 4276,
  "oman": 4277,
  "ifically": 4278,
  "\u0120\u00eb\u012d\u00a4": 4279,
  "\u0120Cong": 4280,
  "\u0120Ver": 4281,
  "\u0120trick": 4282,
  "\u0120began": 4283,
  "\u0120vill": 4284,
  "\u00ea\u00b1\u00b0": 4285,
  "how": 4286,
  "\u00e6\u0143": 4287,
  "\u0120till": 4288,
  "\u012090": 4289,
  "bert": 4290,
  "\u0120\u00ea\u00b8": 4291,
  "\u0120temperature": 4292,
  "\u00c3\u00b2": 4293,
  "\u00e0\u00b9\u012a": 4294,
  "\u0120graph": 4295,
  "\u0120\u00ea\u00b7\u00b8": 4296,
  "\u0120rot": 4297,
  "\u0120mob": 4298,
  "AY": 4299,
  "ael": 4300,
  "\u0120repe": 4301,
  "\u0120device": 4302,
  "\u0120199": 4303,
  "\u0120tele": 4304,
  "\u0120kept": 4305,
  "pa": 4306,
  "\u00e6\u0138": 4307,
  "verse": 4308,
  "\u0120stream": 4309,
  "\u00d0\u00b5\u00d1\u0129": 4310,
  "ession": 4311,
  "\u0120strugg": 4312,
  "zz": 4313,
  "\u0120degree": 4314,
  "\u0120helping": 4315,
  "\u0120smell": 4316,
  "\u0120perhaps": 4317,
  "pro": 4318,
  "\u0120context": 4319,
  "\u0120ik": 4320,
  "\u0120\u00d0\u00bf\u00d0\u00b5\u00d1\u0122": 4321,
  "\u0120calcul": 4322,
  "\u00e9\u00ba\u00bc": 4323,
  "bing": 4324,
  "\u0120realize": 4325,
  "lam": 4326,
  "\u0120Char": 4327,
  "yt": 4328,
  "\u0120\u00ec\u013f\u00b4\u00ec": 4329,
  "\u0120danger": 4330,
  "\u0120Im": 4331,
  "aa": 4332,
  "\u0120loved": 4333,
  "\u0120purpose": 4334,
  "\u0120finished": 4335,
  "\u0120peace": 4336,
  "\u0120ot": 4337,
  "\u0120global": 4338,
  "\u00cf\u0122": 4339,
  "\u0120aber": 4340,
  "\u0138\u012a": 4341,
  "\u0120characters": 4342,
  "\u0120nur": 4343,
  "\u0120damage": 4344,
  "\u0120emer": 4345,
  "\u0120prec": 4346,
  "\u0120Wir": 4347,
  "\u0120instit": 4348,
  "\u0133\u00d7": 4349,
  "\u0120allowed": 4350,
  "bon": 4351,
  "\u0120tod": 4352,
  "\u00d0\u00b5\u00d0\u00b3\u00d0\u00be": 4353,
  "\u0120jetzt": 4354,
  "\u0120medic": 4355,
  "\u0120smaller": 4356,
  "ceed": 4357,
  "\u0120levels": 4358,
  "\u0120intell": 4359,
  "We": 4360,
  "\u0120sem": 4361,
  "\u0120currently": 4362,
  "\u0120modern": 4363,
  "\u0120contract": 4364,
  "\u0120details": 4365,
  "ortunately": 4366,
  "OS": 4367,
  "\u0120states": 4368,
  "\u0120adjust": 4369,
  "antage": 4370,
  "ez": 4371,
  "\u0120Very": 4372,
  "\u0120scale": 4373,
  "\u0120release": 4374,
  "\u0120faz": 4375,
  "\u0120ic": 4376,
  "itude": 4377,
  "AC": 4378,
  "\u0120Pat": 4379,
  "iden": 4380,
  "\u0143\u0132": 4381,
  "\u0120prefer": 4382,
  "ological": 4383,
  "\u0120Facebook": 4384,
  "\u0120\u00ea\u00b0\u013b": 4385,
  "\u0120..": 4386,
  "\u0120Make": 4387,
  "\u0120\u00d0\u00ba\u00d0\u00be\u00d1\u0124\u00d0\u00be\u00d1\u0122": 4388,
  "\u0120David": 4389,
  "\u0120Afric": 4390,
  "\u0120mode": 4391,
  "\u0120City": 4392,
  "\u0120shall": 4393,
  "\u0120\u00d1\u0126": 4394,
  "imin": 4395,
  "\u0120\u00d0\u00b7\u00d0\u00b0": 4396,
  "rom": 4397,
  "ua": 4398,
  "\u0120beyond": 4399,
  "\u0120distrib": 4400,
  "\u00d0\u00ba\u00d1\u0125": 4401,
  "\u0120Does": 4402,
  "\u0120vict": 4403,
  "rate": 4404,
  "\u0120vai": 4405,
  "\u0120successful": 4406,
  "\u0120hous": 4407,
  "aha": 4408,
  "ests": 4409,
  "\u0120Est": 4410,
  "\u0120discover": 4411,
  "\u0120therefore": 4412,
  "cha": 4413,
  "\u0120cup": 4414,
  "\u0120population": 4415,
  "\u0120Il": 4416,
  "sc": 4417,
  "\u0120spent": 4418,
  "rel": 4419,
  "\u0120useful": 4420,
  "\u0120tab": 4421,
  "\u00e6\u013f": 4422,
  "\u0120\u00c5": 4423,
  "\u0120\u00ec\u0142\u013e": 4424,
  "\u0120conse": 4425,
  "\u0120quant": 4426,
  "aya": 4427,
  "\u0120bon": 4428,
  "\u00e5\u0131\u00af": 4429,
  "\u0120Chin": 4430,
  "\u0120\u00ea\u00b2\u0125": 4431,
  "ounds": 4432,
  "\u00d0\u00b5\u00d1\u012a": 4433,
  "elle": 4434,
  "\u0120ice": 4435,
  "21": 4436,
  "\u0120kick": 4437,
  "\u00e4\u00b8\u012d": 4438,
  "\u0120steps": 4439,
  "\u0120tonight": 4440,
  "\u00d0\u00bd\u00d1\u012d\u00d0\u00b9": 4441,
  "rench": 4442,
  ".'": 4443,
  "\u0120grab": 4444,
  "\u0120implement": 4445,
  "\u0120\u00ec\u012a\u013a": 4446,
  "\u0120mission": 4447,
  "\u0120clearly": 4448,
  "\u0120appreciate": 4449,
  "\u00e8\u0122": 4450,
  "\u0120fresh": 4451,
  "arm": 4452,
  "\u0120Two": 4453,
  "\u0120exec": 4454,
  "\u0120projects": 4455,
  "\u0120communities": 4456,
  "rible": 4457,
  "\u0120region": 4458,
  "\u0120frequ": 4459,
  "roy": 4460,
  "\u0120however": 4461,
  "\u0120partners": 4462,
  "anc": 4463,
  "\u0120minim": 4464,
  "\u0120lat": 4465,
  "\u0120families": 4466,
  "\u0120evidence": 4467,
  "\u0120pun": 4468,
  "raft": 4469,
  "\u0120loss": 4470,
  "\u0120map": 4471,
  "\u0120anybody": 4472,
  "\u0120changing": 4473,
  "\u0120rules": 4474,
  "\u0120organization": 4475,
  "\u0120essentially": 4476,
  "\u0120Red": 4477,
  "\u0120element": 4478,
  "\u00e6\u0139": 4479,
  "\u0120virt": 4480,
  "rat": 4481,
  "\u0120print": 4482,
  "ander": 4483,
  "aren": 4484,
  "emos": 4485,
  "\u00ce\u00bf\u00cf\u0127": 4486,
  "\u0120conditions": 4487,
  "abe": 4488,
  "\u0120dance": 4489,
  "\u00d0\u00b8\u00d1\u0122": 4490,
  "\u0120dos": 4491,
  "\u00d0\u00be\u00d1\u0129": 4492,
  "\u0120Que": 4493,
  "\u0120walking": 4494,
  "\u0120tro": 4495,
  "\u0120id": 4496,
  "\u0120additional": 4497,
  "\u0120fully": 4498,
  "\u0120fans": 4499,
  "\u0120addition": 4500,
  "\u0120liked": 4501,
  "\u0120\u00c3\u00bcber": 4502,
  "\u0120bow": 4503,
  "di": 4504,
  "\u0120master": 4505,
  "off": 4506,
  "):": 4507,
  "mber": 4508,
  "\u0120\u00eb\u00ac": 4509,
  "\u00e5\u00af": 4510,
  "\u00e5\u012a\u00b0": 4511,
  "lause": 4512,
  "\u0120oder": 4513,
  "\u0120safety": 4514,
  "\u0120react": 4515,
  "\u00e0\u00ae\u00bf": 4516,
  "bt": 4517,
  "\u0120disapp": 4518,
  "\u0120girls": 4519,
  "St": 4520,
  "\u0120Ang": 4521,
  "\u0120faith": 4522,
  "\u0120turns": 4523,
  "\u0120tight": 4524,
  "\u0120mouth": 4525,
  "ami": 4526,
  "zer": 4527,
  "\u0120weap": 4528,
  "\u0120\u00d0\u00b1\u00d1\u0125\u00d0\u00b4": 4529,
  "\u0120hospital": 4530,
  "raid": 4531,
  "\u0120micro": 4532,
  "\u0120State": 4533,
  "\u0120Most": 4534,
  "agn": 4535,
  "\u0120decide": 4536,
  "\u0120patient": 4537,
  "\u0120corner": 4538,
  "\u0120died": 4539,
  "No": 4540,
  "\u0120Stud": 4541,
  "rend": 4542,
  "empt": 4543,
  "\u0120lie": 4544,
  "\u0120lif": 4545,
  "\u0120Before": 4546,
  "t\u00c3\u00b3": 4547,
  "\u0120Super": 4548,
  "\u0120bell": 4549,
  "60": 4550,
  "\u0120private": 4551,
  "\u0120Paul": 4552,
  "\u0120gib": 4553,
  "\u0120agre": 4554,
  "\u00b4\u00ec\u0126\u013e": 4555,
  "\u0120sig": 4556,
  "\u0120investig": 4557,
  "\u00d1\u0131\u00d1\u0124": 4558,
  "ening": 4559,
  "\u0120distance": 4560,
  "\u0120warm": 4561,
  "\u0120digital": 4562,
  "\u00e5\u00be\u012a": 4563,
  "iner": 4564,
  "\u0120pand": 4565,
  "\u0120COVID": 4566,
  "\u00d0\u00b3\u00d0\u00be": 4567,
  "gn": 4568,
  "\u0120race": 4569,
  "\u0120proud": 4570,
  "\u0120teaching": 4571,
  "\u0120\u00d1\u0124\u00d0\u00be": 4572,
  "\u00ec\u0140\u00a5": 4573,
  "\u0120Allah": 4574,
  "In": 4575,
  "\u0120wood": 4576,
  "\u0120colors": 4577,
  "\u0120wird": 4578,
  "uj": 4579,
  "idad": 4580,
  "\u0120customers": 4581,
  "\u0120connected": 4582,
  "\u0120layer": 4583,
  "\u0120achieve": 4584,
  "\u0120perspective": 4585,
  "\u0120Coll": 4586,
  "\u00d9\u0124": 4587,
  "\u0120cloud": 4588,
  "!!!": 4589,
  "\u0120ended": 4590,
  "\u0142\u0129\u00ea\u00b2\u012e": 4591,
  "\u0120management": 4592,
  "\u0120rich": 4593,
  "\u0120subst": 4594,
  "\u0120remo": 4595,
  "\u0120serve": 4596,
  "\u0120resist": 4597,
  "\u0120thoughts": 4598,
  "\u0120growth": 4599,
  "iliar": 4600,
  "\u0120rights": 4601,
  "\u0120charge": 4602,
  "\u0120consist": 4603,
  "\u0120werden": 4604,
  "\u0120emb": 4605,
  "andom": 4606,
  "\u0120hurt": 4607,
  "\u0120kan": 4608,
  "ias": 4609,
  "\u00d0\u00bb\u00d0\u00be": 4610,
  "\u0120shit": 4611,
  "\u0120beg": 4612,
  "\u0120received": 4613,
  "itation": 4614,
  "\u0120meat": 4615,
  "\u0120isso": 4616,
  "ffee": 4617,
  "\u0120famous": 4618,
  "\u0120comfortable": 4619,
  "IL": 4620,
  "\u0120Bye": 4621,
  "\u00e8\u00aa\u00aa": 4622,
  "\u00e5\u0122\u0133": 4623,
  "othes": 4624,
  "\u0120medical": 4625,
  "\u0120enjoyed": 4626,
  "\u0120healthy": 4627,
  "\u0120wy": 4628,
  "cies": 4629,
  "\u0120effort": 4630,
  "\u0120doctor": 4631,
  "\u0120military": 4632,
  "LAU": 4633,
  "\u0120gro": 4634,
  "\u0120battle": 4635,
  "\u0120fed": 4636,
  "\u0120capac": 4637,
  "\u0120afraid": 4638,
  "ivil": 4639,
  "\u0120\u00d0\u00b2\u00d1\u0123\u00d0\u00b5": 4640,
  "\u0120length": 4641,
  "ysis": 4642,
  "\u0120bei": 4643,
  "\u00a4\u00ed": 4644,
  "\u0120organiz": 4645,
  "org": 4646,
  "inc": 4647,
  "\u0120interact": 4648,
  "\u0120Chinese": 4649,
  "\u0120according": 4650,
  "\u0120incredible": 4651,
  "\u0120killed": 4652,
  "\u0120daughter": 4653,
  "\u0120\u00cf\u0122": 4654,
  "\u00d1\u012d\u00d0\u00b2": 4655,
  "\u0120schools": 4656,
  "\u0120\u00c2\u00ab": 4657,
  "ller": 4658,
  "\u0120shouldn": 4659,
  "nal": 4660,
  "\u0120cris": 4661,
  "\u0120chicken": 4662,
  "\u0120faster": 4663,
  "\u0120extremely": 4664,
  "\u0120oppos": 4665,
  "\u0120nous": 4666,
  "\u0120+": 4667,
  "ria": 4668,
  "\u0120financial": 4669,
  "\u0120exciting": 4670,
  "\u0120journey": 4671,
  "\u00d7\u013b\u00d7\u013f": 4672,
  "\u0142\u00eb": 4673,
  "\u0120display": 4674,
  "\u0120memory": 4675,
  "\u0120heavy": 4676,
  "\u00d0\u00bd\u00d0\u00b5": 4677,
  "\u0120passed": 4678,
  "\u00d1\u0122\u00d0\u00b8": 4679,
  "iles": 4680,
  "\u0120psych": 4681,
  "\u0120specifically": 4682,
  "\u0120engage": 4683,
  "\u0120led": 4684,
  "orge": 4685,
  "\u0120Dem": 4686,
  "order": 4687,
  "\u012080": 4688,
  "\u0120cream": 4689,
  "esterday": 4690,
  "\u0120edge": 4691,
  "\u0120\u00d0\u00bf\u00d0\u00be\u00d0\u00bb": 4692,
  "\u0120bull": 4693,
  "\u0120indic": 4694,
  "\u0120kt\u00c3\u00b3": 4695,
  "\u0120hopefully": 4696,
  "uments": 4697,
  "agen": 4698,
  "\u00d0\u00bd\u00d0\u00be\u00d0\u00b3\u00d0\u00be": 4699,
  "\u0120hate": 4700,
  "cht": 4701,
  "80": 4702,
  "\u0120effic": 4703,
  "\u0120\u00ec\u00a7\u0122": 4704,
  "\u0120internet": 4705,
  "\u0120budget": 4706,
  "\u0120property": 4707,
  "iday": 4708,
  "\u0120\u00ec\u013c": 4709,
  "\u0120\u00d0\u00bc\u00d0\u00be\u00d0\u00b6": 4710,
  "ola": 4711,
  "\u0120showed": 4712,
  "\u0120Mon": 4713,
  "\u0120thousand": 4714,
  "AP": 4715,
  "\u0120poor": 4716,
  "used": 4717,
  "\u0120Jack": 4718,
  "\u0120s\u00c3\u00a5": 4719,
  "\u0125\u00bd": 4720,
  "\u0120esc": 4721,
  "\u0120software": 4722,
  "\u0120quar": 4723,
  "\u0120\u00d8\u00a8": 4724,
  "\u0120necessarily": 4725,
  "omen": 4726,
  "iy": 4727,
  "\u0120eventually": 4728,
  "ished": 4729,
  "\u0120bright": 4730,
  "ED": 4731,
  "\u0120spl": 4732,
  "\u0120demand": 4733,
  "\u0120threat": 4734,
  "\u0120sir": 4735,
  "\u0120released": 4736,
  "cket": 4737,
  "\u0120\u00e2\u0122\u00ab": 4738,
  "\u0120required": 4739,
  "\u0120vote": 4740,
  "\u00ec\u00b9": 4741,
  "\u00e0\u00ae\u00a4": 4742,
  "\u0120developed": 4743,
  "\u0120\u00ec\u0124\u00ac": 4744,
  "atory": 4745,
  "\u0120dir": 4746,
  "cape": 4747,
  "\u0120slightly": 4748,
  "\u00c3\u00ac": 4749,
  "\u00e0\u00b9\u012b": 4750,
  "reet": 4751,
  "\u0120disease": 4752,
  "\u0120court": 4753,
  "\u0120items": 4754,
  "\u0120Earth": 4755,
  "\u00d1\u0123\u00d1\u0124\u00d0\u00b8": 4756,
  "\u00d0\u00b6\u00d0\u00b5": 4757,
  "\u00ec\u00b2": 4758,
  "\u0120challenges": 4759,
  "\u0120Brit": 4760,
  "\u0120designed": 4761,
  "12": 4762,
  "\u0120hearing": 4763,
  "\u0120listening": 4764,
  "zo": 4765,
  "\u0120\u00d1\u0123\u00d0\u00bb": 4766,
  "\u00e3\u0123\u00a7\u00e3\u0123\u013b": 4767,
  "\u0120pero": 4768,
  "\u0120wearing": 4769,
  "plic": 4770,
  "\u0120chem": 4771,
  "\u0120balance": 4772,
  "\u0120ba": 4773,
  "\u0120receive": 4774,
  "ima": 4775,
  "\u0120significant": 4776,
  "\u0120\u00d0\u00bc\u00d1\u012d": 4777,
  "anch": 4778,
  "\u0120Cr": 4779,
  "\u0120Coun": 4780,
  "\u00ea\u00b8\u012a": 4781,
  "\u0120jobs": 4782,
  "\u0120official": 4783,
  "\u0120perm": 4784,
  "oms": 4785,
  "\u0120opportunities": 4786,
  "\u0120overall": 4787,
  "\u0120hus": 4788,
  "odes": 4789,
  "\u0120nation": 4790,
  "\u0120Reg": 4791,
  "\u0120ord": 4792,
  "\u0120restaur": 4793,
  "\u0120\u00ec\u0128": 4794,
  "\u0120mel": 4795,
  "vin": 4796,
  "\u0120wenn": 4797,
  "\u0120k\u00c3\u00b6n": 4798,
  "\u00e6\u0125": 4799,
  "\u0120opinion": 4800,
  "\u00e3\u0124\u0124": 4801,
  "\u00e8\u00ac": 4802,
  "\u0120Sometimes": 4803,
  "\u00e7\u0124": 4804,
  "\u00d1\u012b\u00d0\u00b5": 4805,
  "asc": 4806,
  "OU": 4807,
  "\u01202020": 4808,
  "\u0120delicious": 4809,
  "iger": 4810,
  "\u0120\u00ec\u0137\u012a": 4811,
  "ole": 4812,
  "\u0120handle": 4813,
  "\u0120cit": 4814,
  "\u0120\u00ed\u0137\u013e": 4815,
  "\u0120f\u00c3\u00b6r": 4816,
  "ooth": 4817,
  "\u0120necessary": 4818,
  "\u0120independ": 4819,
  "\u00e6\u0126": 4820,
  "isten": 4821,
  "ham": 4822,
  "\u0120\u00c3\u00a9t": 4823,
  "\u00e3\u0125\u00b3": 4824,
  "\u0120multi": 4825,
  "\u00cf\u012e": 4826,
  "?)": 4827,
  "\u0120campus": 4828,
  "\u0120topic": 4829,
  "\u0120rain": 4830,
  "\u0120panel": 4831,
  "\u0120Sam": 4832,
  "\u0120larger": 4833,
  "audience": 4834,
  "\u0120paid": 4835,
  "\u0120economic": 4836,
  "olt": 4837,
  "\u0120street": 4838,
  "\u0120Cont": 4839,
  "\u0120driving": 4840,
  "\u0120\u00ec\u0142\u0122": 4841,
  "\u0120hay": 4842,
  "\u0120professional": 4843,
  "\u0120Intern": 4844,
  "\u00e5\u00b8": 4845,
  "\u0120input": 4846,
  "\u0120categ": 4847,
  "\u0120cro": 4848,
  "\u0120ll": 4849,
  "ET": 4850,
  "\u00d1\u012d\u00d0\u00b9": 4851,
  "**": 4852,
  "\u0120Ze": 4853,
  "BLE": 4854,
  "\u0120\u00ec\u00a4": 4855,
  "rees": 4856,
  "\u0120\u00d0\u00af": 4857,
  "ede": 4858,
  "iert": 4859,
  "\u0120fold": 4860,
  "\u0120dur": 4861,
  "\u0120National": 4862,
  "\u0120\u00ec\u0138\u00b4\u00eb": 4863,
  "anced": 4864,
  "\u0120faire": 4865,
  "uted": 4866,
  "\u0120king": 4867,
  "\u0120wild": 4868,
  "oi": 4869,
  "upbeat": 4870,
  "\u0120prevent": 4871,
  "ius": 4872,
  "\u0120\u00c3\u00a8": 4873,
  "\u0120wide": 4874,
  "\u0120ring": 4875,
  "\u0120title": 4876,
  "\u0120standing": 4877,
  "\u0120although": 4878,
  "\u0120hi": 4879,
  "\u0120sauce": 4880,
  "\u0120sides": 4881,
  "\u0120animals": 4882,
  "iling": 4883,
  "atives": 4884,
  "\u00ec\u0139\u0132\u00ec\u0126\u013e": 4885,
  "\u0120Over": 4886,
  "\u0120desp": 4887,
  "\u0120considered": 4888,
  "aries": 4889,
  "iers": 4890,
  "\u0120einen": 4891,
  "\u0120sister": 4892,
  "\u0120\u00eb\u0137": 4893,
  "\u0120Sure": 4894,
  "\u00e3\u0124\u012d": 4895,
  "riend": 4896,
  "aign": 4897,
  "\u0120shown": 4898,
  "\u0120sac": 4899,
  "\u0120sont": 4900,
  "\u0120century": 4901,
  "\u0120tien": 4902,
  "\u0120\u00ce\u00ba": 4903,
  "\u0120ST": 4904,
  "\u00e5\u0137\u012c": 4905,
  "\u0120older": 4906,
  "iem": 4907,
  "\u0120truly": 4908,
  "\u0120Si": 4909,
  "\u0120window": 4910,
  "iques": 4911,
  "ario": 4912,
  "\u00e6\u00b2\u0134": 4913,
  "\u0120location": 4914,
  "\u00ce\u00ba": 4915,
  "\u0120\u00ec\u013e": 4916,
  "vi": 4917,
  "ague": 4918,
  "\u0120Sorry": 4919,
  "\u0120disp": 4920,
  "\u0120hell": 4921,
  "\u0120\u00c3\u012b": 4922,
  "\u0120trade": 4923,
  "\u0120critical": 4924,
  "\u0120\u00ea\u00b1": 4925,
  "\u0120named": 4926,
  "\u0120prepared": 4927,
  "\u0120House": 4928,
  "alu": 4929,
  "\u0120tough": 4930,
  "\u0120trip": 4931,
  "\u0120sand": 4932,
  "cel": 4933,
  "\u00c3\u00bcz": 4934,
  "\u0120Put": 4935,
  "\u0120apart": 4936,
  "isf": 4937,
  "vis": 4938,
  "\u0120libr": 4939,
  "aven": 4940,
  "\u0120vie": 4941,
  "\u0120effective": 4942,
  "\u00e0\u00b8\u00b2": 4943,
  "\u0120magn": 4944,
  "\u0120muito": 4945,
  "\u0120\u00ea\u00b5": 4946,
  "hal": 4947,
  "\u0120limit": 4948,
  "\u0120nine": 4949,
  "\u0120willing": 4950,
  "\u00c4\u00b1\u00c5\u0141": 4951,
  "sp": 4952,
  "\u00d0\u00b5\u00d0\u00b3": 4953,
  "hi": 4954,
  "\u0120alt": 4955,
  "\u0120Jan": 4956,
  "\u0120origin": 4957,
  "\u0120Us": 4958,
  "\u0120elements": 4959,
  "\u0120uses": 4960,
  "\u0120helpful": 4961,
  "\u0120flat": 4962,
  "\u0120familiar": 4963,
  "\u0120Park": 4964,
  "\u0120core": 4965,
  "\u0120closer": 4966,
  "\u0120active": 4967,
  "\u0120administ": 4968,
  "CE": 4969,
  "\u00d0\u00bd\u00d1\u012d\u00d0\u00b5": 4970,
  "\u00e7\u0126": 4971,
  "\u0120relative": 4972,
  "\u0120mental": 4973,
  "\u0120random": 4974,
  "\u0120partner": 4975,
  "\u0120util": 4976,
  "phone": 4977,
  "\u0120rule": 4978,
  "ww": 4979,
  "\u0120\u00ec\u0142\u0137": 4980,
  "\u0120schon": 4981,
  "\u0120coffee": 4982,
  "HA": 4983,
  "\u0120connection": 4984,
  "\u0120unit": 4985,
  "laughing": 4986,
  "log": 4987,
  "\u0120appl": 4988,
  "\u00d0\u00bb\u00d0\u00b0": 4989,
  "usic": 4990,
  "\u0120Bra": 4991,
  "\u0120anywhere": 4992,
  "AUDI": 4993,
  "\u0120separate": 4994,
  "box": 4995,
  "\u0120divid": 4996,
  "\u0120testing": 4997,
  "\u0120sick": 4998,
  "\u0120weren": 4999,
  "\u00e4\u00bb\u0138": 5000,
  "\u0120\u00d7\u013e\u00d7": 5001,
  "\u0120advantage": 5002,
  "\u0120transfer": 5003,
  "'.": 5004,
  "\u0120\u00eb\u00b9": 5005,
  "\u0120finding": 5006,
  "\u00d0\u00bd\u00d0\u00be\u00d0\u00b9": 5007,
  "\u0120\u00ec\u00a2\u012d": 5008,
  "\u0120fort": 5009,
  "\u0120economy": 5010,
  "\u0120lack": 5011,
  "\u0120leaving": 5012,
  "\u0120dim": 5013,
  "\u00e5\u0130": 5014,
  "\u0120Res": 5015,
  "\u00d8\u0143": 5016,
  "\u0120discussion": 5017,
  "\u00d0\u00b5\u00d0\u00bf": 5018,
  "\u0120ges": 5019,
  "duct": 5020,
  "\u0120chain": 5021,
  "\u0120users": 5022,
  "ech": 5023,
  "\u00c5\u0124a": 5024,
  "\u0120dish": 5025,
  "\u0120careful": 5026,
  "\u0120teacher": 5027,
  "\u0120optim": 5028,
  "\u0120flu": 5029,
  "atically": 5030,
  "\u0120reflect": 5031,
  "\u0120treatment": 5032,
  "eed": 5033,
  "i\u00c4\u013b": 5034,
  "\u00c3\u00b9": 5035,
  "\u00e0\u00ae\u00be": 5036,
  "\u0120equip": 5037,
  "\u0120planning": 5038,
  "\u0120solve": 5039,
  "\u00e3\u0123\u013f": 5040,
  "\u0120Tom": 5041,
  "\u0120avoid": 5042,
  "\u0120pou": 5043,
  "\u0120greater": 5044,
  "lin": 5045,
  "OL": 5046,
  "\u0120Lu": 5047,
  "\u0120More": 5048,
  "\u0120attract": 5049,
  "\u00c3\u00aan": 5050,
  "una": 5051,
  "\u0120photo": 5052,
  "eration": 5053,
  "\u0120planet": 5054,
  "\u0120copy": 5055,
  "\u0120visual": 5056,
  "iring": 5057,
  "\u0120international": 5058,
  "\u0120laughing": 5059,
  "\u0120thick": 5060,
  "\u0120holding": 5061,
  "\u0120bringing": 5062,
  "\u0120letter": 5063,
  "\u0120burn": 5064,
  "\u0120effects": 5065,
  "it\u00c3\u00a9": 5066,
  "ours": 5067,
  "OT": 5068,
  "\u00c3\u00aame": 5069,
  "\u0120School": 5070,
  "\u00d7\u0137\u00d7\u00aa": 5071,
  "ropri": 5072,
  "lig": 5073,
  "\u00ce\u00b1\u00ce\u00b9": 5074,
  "\u0120adult": 5075,
  "\u0120sugar": 5076,
  "\u0120ride": 5077,
  "\u0120highlight": 5078,
  "\u0120nobody": 5079,
  "\u012021": 5080,
  "\u0120chat": 5081,
  "\u0120\u00d0\u00bf\u00d1\u0122\u00d0\u00b8": 5082,
  "\u0120innov": 5083,
  "ungen": 5084,
  "\u0120attach": 5085,
  "edom": 5086,
  "\u00e5\u012c": 5087,
  "yl": 5088,
  "\u0120legal": 5089,
  "\u0120rice": 5090,
  "\u0120collabor": 5091,
  "king": 5092,
  "down": 5093,
  "\u00e6\u013b": 5094,
  "\u00e3\u0124\u012c": 5095,
  "\u0120ih": 5096,
  "\u0120Ac": 5097,
  "ously": 5098,
  "\u0120rap": 5099,
  "\u0120solid": 5100,
  "\u0120generally": 5101,
  "\u0120pattern": 5102,
  "ali": 5103,
  "\u00e0\u00b8\u0143": 5104,
  "\u0120transl": 5105,
  "inter": 5106,
  "ault": 5107,
  "\u0120\u00eb\u00a8": 5108,
  "\u0120express": 5109,
  "\u0120examples": 5110,
  "\u0120chose": 5111,
  "\u0120tells": 5112,
  "\u00c3\u0143s": 5113,
  "aint": 5114,
  "\u0120Tell": 5115,
  "\u0120Michael": 5116,
  "\u00e6\u00a8": 5117,
  "\u0120Number": 5118,
  "\u0120tap": 5119,
  "\u0120experiment": 5120,
  "\u0120benefit": 5121,
  "\u0120\u00ec\u00b0": 5122,
  "\u0120sequ": 5123,
  "\u0120expensive": 5124,
  "\u0120generation": 5125,
  "\u0120Many": 5126,
  "\u0120adding": 5127,
  "\u0120kil": 5128,
  "\u0120campaign": 5129,
  "\u0120Ant": 5130,
  "raw": 5131,
  "ommen": 5132,
  "\u0120soul": 5133,
  "jo": 5134,
  "\u0120Actually": 5135,
  "amm": 5136,
  "\u00ea\u00b2\u0142": 5137,
  "\u0120maxim": 5138,
  "\u0120salt": 5139,
  "\u0120cru": 5140,
  "\u0120calling": 5141,
  "\u00e3\u0123\u012e": 5142,
  "\u0120basis": 5143,
  "ban": 5144,
  "\u0120keeping": 5145,
  "\u0120Mor": 5146,
  "eds": 5147,
  "\u00ec\u0128": 5148,
  "\u0120todo": 5149,
  "\u00d0\u00b0\u00d0\u00bc\u00d0\u00b8": 5150,
  "\u00d0\u00bd\u00d1\u0131": 5151,
  "\u0120lived": 5152,
  "\u0120Du": 5153,
  "\u00e3\u0124\u012b": 5154,
  "\u00e5\u00ae\u00b6": 5155,
  "force": 5156,
  "\u00e5\u00b9\u00b4": 5157,
  "ference": 5158,
  "ala": 5159,
  "\u0120occur": 5160,
  "sk": 5161,
  "\u0120recent": 5162,
  "\u0120cars": 5163,
  "\u0120traditional": 5164,
  "entle": 5165,
  "\u00b2\u012a": 5166,
  "\u0120held": 5167,
  "\u0120nach": 5168,
  "\u0120Center": 5169,
  "eren": 5170,
  "\u0120bin": 5171,
  "\u00d9\u0123": 5172,
  "\u0120comme": 5173,
  "\u0120reve": 5174,
  "\u0120\u00ec\u013a\u00a4": 5175,
  "\u0120expected": 5176,
  "abil": 5177,
  "\u0120focused": 5178,
  "ov": 5179,
  "\u0120iP": 5180,
  "orial": 5181,
  "iro": 5182,
  "\u0120etc": 5183,
  "aming": 5184,
  "\u0120Son": 5185,
  "\u0120yesterday": 5186,
  "\u0120strate": 5187,
  "\u0120\u00d1\u0128": 5188,
  "\u0120\u00eb\u0131": 5189,
  "pes": 5190,
  "\u0120activity": 5191,
  "\u0120advice": 5192,
  "\u0120opening": 5193,
  "fin": 5194,
  "\u0120rela": 5195,
  "\u00e9\u0138": 5196,
  "\u0120instance": 5197,
  "\u0120Everyone": 5198,
  "bl": 5199,
  "pen": 5200,
  "\u0120vision": 5201,
  "\u0120Alex": 5202,
  "iforn": 5203,
  "\u0120tick": 5204,
  "He": 5205,
  "\u0120strategy": 5206,
  "\u0120kom": 5207,
  "PE": 5208,
  "\u0120Gl": 5209,
  "\u0120electric": 5210,
  "15": 5211,
  "\u0120daily": 5212,
  "\u0120husband": 5213,
  "\u0120station": 5214,
  "\u0120analysis": 5215,
  "ynam": 5216,
  "\u0120attempt": 5217,
  "\u0120billion": 5218,
  "vant": 5219,
  "\u0120forth": 5220,
  "\u0120math": 5221,
  "aly": 5222,
  "\u0120behavior": 5223,
  "\u0120Mas": 5224,
  "kan": 5225,
  "\u0120Day": 5226,
  "\u0120bless": 5227,
  "\u0120gut": 5228,
  "\u0120High": 5229,
  "ox": 5230,
  "\u0120dress": 5231,
  "\u0120jed": 5232,
  "\u00e8\u00af": 5233,
  "\u00e5\u0138": 5234,
  "\u0120experiences": 5235,
  "ista": 5236,
  "\u0120fighting": 5237,
  "\u00e5\u00b7": 5238,
  "\u0120\u00d1\u0123\u00d0\u00ba": 5239,
  "\u0120mostly": 5240,
  "ause": 5241,
  "\u0120pictures": 5242,
  "\u00d0\u00b5\u00d0\u00bd\u00d1\u0124": 5243,
  "\u0120mad": 5244,
  "\u0120models": 5245,
  "\u00d1\u012a\u00d0\u00b5": 5246,
  "\u0120Count": 5247,
  "\u00c5\u0126": 5248,
  "\u00c5\u0124o": 5249,
  "ept": 5250,
  "OM": 5251,
  "\u0120AN": 5252,
  "\u0120trouble": 5253,
  "40": 5254,
  "\u0120bird": 5255,
  "ulate": 5256,
  "\u0120mur": 5257,
  "\u0120produce": 5258,
  "\u0120married": 5259,
  "bit": 5260,
  "\u0120theory": 5261,
  "\u00ed\u013a": 5262,
  "\u0120leader": 5263,
  "\u0120Last": 5264,
  "AA": 5265,
  "\u00e8\u00b5": 5266,
  "\u0120images": 5267,
  "\u0120expand": 5268,
  "\u0120Por": 5269,
  "\u0120purch": 5270,
  "\u0120San": 5271,
  "\u0120Christmas": 5272,
  "\u0120Austral": 5273,
  "\u0120wid": 5274,
  "\u0120Miss": 5275,
  "\u0120knowing": 5276,
  "\u0120ze": 5277,
  "ship": 5278,
  "ku": 5279,
  "\u00d1\u0127\u00d0\u00be\u00d0\u00b4": 5280,
  "\u0120Instagram": 5281,
  "\u0120India": 5282,
  "\u0120esta": 5283,
  "\u0120Californ": 5284,
  "\u012070": 5285,
  "\u0120drag": 5286,
  "\u0120brush": 5287,
  "\u0120names": 5288,
  "And": 5289,
  "\u0120yo": 5290,
  "illa": 5291,
  "\u0120sched": 5292,
  "\u0120destroy": 5293,
  "year": 5294,
  "\u0120vamos": 5295,
  "\u0120\u00d9\u0126": 5296,
  "\u00c3\u00a7a": 5297,
  "\u0120forgot": 5298,
  "\u00d0\u00b8\u00d0\u00b5": 5299,
  "\u0120raise": 5300,
  "reme": 5301,
  "\u00ed\u0137\u00b4": 5302,
  "\u0120Give": 5303,
  "\u0120contain": 5304,
  "rab": 5305,
  "\u0120gift": 5306,
  "\u0120\u00d1\u0123\u00d0\u00bf": 5307,
  "\u0120request": 5308,
  "\u0120shut": 5309,
  "\u0120degrees": 5310,
  "\u0120benefits": 5311,
  "\u00d1\u012d\u00d0\u00b5": 5312,
  "\u0120studies": 5313,
  "\u0120ends": 5314,
  "\u0120everywhere": 5315,
  "\u0120hero": 5316,
  "oph": 5317,
  "erry": 5318,
  "\u0120materials": 5319,
  "ened": 5320,
  "NA": 5321,
  "\u00e5\u012f": 5322,
  "\u0120muy": 5323,
  "\u0120worse": 5324,
  "\u00e4\u00bb\u0122": 5325,
  "\u0120Mad": 5326,
  "\u0120decisions": 5327,
  "ione": 5328,
  "\u0120foreign": 5329,
  "laughter": 5330,
  "iber": 5331,
  "\u00d0\u00b5\u00d0\u00bd\u00d0\u00b8\u00d1\u0131": 5332,
  "\u00e3\u0127\u012d": 5333,
  "\u0120realized": 5334,
  "\u0120ign": 5335,
  "\u0120weak": 5336,
  "\u0120\u00ce\u00bc": 5337,
  "\u0120scared": 5338,
  "\u0120assum": 5339,
  "AK": 5340,
  "\u00ef\u00bf": 5341,
  "\u00ef\u00bf\u00bd": 5342,
  "\u0120covered": 5343,
  "\u0120Sat": 5344,
  "\u0120\u00d0\u00be\u00d0\u00bd": 5345,
  "\u0120individuals": 5346,
  "\u0120compared": 5347,
  "11": 5348,
  "\u0120Add": 5349,
  "icles": 5350,
  "\u0120cert": 5351,
  "rar": 5352,
  "\u0120brief": 5353,
  "\u0120activities": 5354,
  "\u0120fab": 5355,
  "bar": 5356,
  "\u0120ast": 5357,
  "\u0120Other": 5358,
  "\u0120classes": 5359,
  "\u0120og": 5360,
  "\u0120missing": 5361,
  "\u00e3\u0123\u0142": 5362,
  "\u00e9\u013f": 5363,
  "wers": 5364,
  "\u00d7\u00a9": 5365,
  "\u0120introduce": 5366,
  "\u0120equation": 5367,
  "\u00e3\u0123\u00be\u00e3\u0123\u013b": 5368,
  "\u0120nom": 5369,
  "\u0120painting": 5370,
  "ushing": 5371,
  "\u0120AP": 5372,
  "\u0120encourage": 5373,
  "\u0120ship": 5374,
  "ittee": 5375,
  "iverse": 5376,
  "ota": 5377,
  "nam": 5378,
  "\u00e3\u0125\u00bb": 5379,
  "\u0120exercise": 5380,
  "\u0120\u00d0\u0143": 5381,
  "\u0120nas": 5382,
  "\u0120thousands": 5383,
  "\u0120California": 5384,
  "\u0120ses": 5385,
  "\u0120row": 5386,
  "\u0140\u012a": 5387,
  "\u0120pandemic": 5388,
  "\u0120skill": 5389,
  "bel": 5390,
  "\u0120director": 5391,
  "\u0120milk": 5392,
  "\u0120nut": 5393,
  "\u0120motion": 5394,
  "\u0120closed": 5395,
  "\u00e8\u00a8": 5396,
  "\u0120credit": 5397,
  "ahr": 5398,
  "\u0120cheese": 5399,
  "\u0120altern": 5400,
  "imately": 5401,
  "\u0120sust": 5402,
  "\u0120Tra": 5403,
  "\u0120glad": 5404,
  "\u0120highly": 5405,
  "\u0120wa": 5406,
  "\u0120reduce": 5407,
  "\u0120ble": 5408,
  "ador": 5409,
  "inated": 5410,
  "iones": 5411,
  "cient": 5412,
  "\u0120depending": 5413,
  "\u0120sharing": 5414,
  "\u0120caught": 5415,
  "rael": 5416,
  "\u0120mehr": 5417,
  "\u0120passion": 5418,
  "\u00e7\u013d": 5419,
  "\u0120ru": 5420,
  "\u0120farm": 5421,
  "TI": 5422,
  "aves": 5423,
  "\u0120Rob": 5424,
  "\u0120Bro": 5425,
  "\u0120motiv": 5426,
  "retch": 5427,
  "rupt": 5428,
  "\u0120Big": 5429,
  "\u0120alle": 5430,
  "\u0120ett": 5431,
  "ubs": 5432,
  "\u0120Japanese": 5433,
  "\u0120Hall": 5434,
  "\u00d0\u00b8\u00d0\u00bb\u00d0\u00b8": 5435,
  "AUDIBLE": 5436,
  "\u00e7\u00ac": 5437,
  "\u0120cells": 5438,
  "ika": 5439,
  "eline": 5440,
  "iler": 5441,
  "\u0120\u00ec\u00a3": 5442,
  "\u0120sky": 5443,
  "INAUDIBLE": 5444,
  "ende": 5445,
  "apter": 5446,
  "\u0120pin": 5447,
  "\u0120gather": 5448,
  "hol": 5449,
  "lection": 5450,
  "\u0120syn": 5451,
  "\u0120plug": 5452,
  "round": 5453,
  "\u0120university": 5454,
  "hib": 5455,
  "\u0120fantastic": 5456,
  "kn": 5457,
  "\u0120hole": 5458,
  "\u0120Remember": 5459,
  "inct": 5460,
  "aks": 5461,
  "CH": 5462,
  "\u0120broken": 5463,
  "\u0120strateg": 5464,
  "\u0120alive": 5465,
  "\u0120tank": 5466,
  "\u0120cart": 5467,
  "rated": 5468,
  "rie": 5469,
  "\u0120Step": 5470,
  "\u0120Everything": 5471,
  "\u0120bound": 5472,
  "\u0120sobre": 5473,
  "\u0120customer": 5474,
  "\u00a1\u012e": 5475,
  "urg": 5476,
  "\u0120Bill": 5477,
  "La": 5478,
  "what": 5479,
  "\u0120reaction": 5480,
  "\u0120session": 5481,
  "\u0120plans": 5482,
  "\u0120\u00ec\u013f\u00b4\u00eb\u0142\u0129\u00ea\u00b2\u012e": 5483,
  "\u0120download": 5484,
  "\u00ec\u013b": 5485,
  "uer": 5486,
  "\u0120cab": 5487,
  "\u0120instr": 5488,
  "ifying": 5489,
  "\u0120Nice": 5490,
  "\u0120teams": 5491,
  "\u00c4\u00b1l": 5492,
  "\u0120goals": 5493,
  "isch": 5494,
  "\u0120transport": 5495,
  "\u0120animal": 5496,
  "\u0120costs": 5497,
  "\u0120calls": 5498,
  "\u0120sehr": 5499,
  "\u00ec\u012a": 5500,
  "rian": 5501,
  "\u0120dial": 5502,
  "\u0120weather": 5503,
  "\u00e0\u00b9\u0122": 5504,
  "\u0120\u00d0\u00b2\u00d0\u00be\u00d1\u0124": 5505,
  "\u0120Play": 5506,
  "\u0120shared": 5507,
  "\u0120smooth": 5508,
  "aba": 5509,
  "\u0120leaves": 5510,
  "\u00e0\u00ae\u00a9": 5511,
  "\u0120concent": 5512,
  "\u0120shift": 5513,
  "\u0120\u00eb\u0132\u013a": 5514,
  "\u0120Govern": 5515,
  "\u0120demonst": 5516,
  "\u0120butter": 5517,
  "\u0120\u00ec\u0139\u00ac": 5518,
  "\u0120satisf": 5519,
  "\u012a\u00eb\u00ac": 5520,
  "\u0120recognize": 5521,
  "\u0120French": 5522,
  "\u0120volume": 5523,
  "\u00c3\u00a4nd": 5524,
  "\u00d1\u0125\u00d0\u00bc": 5525,
  "\u0120\u00ec\u00a7\u0126": 5526,
  "\u0120Keep": 5527,
  "owa": 5528,
  "ipped": 5529,
  "\u00d1\u0123\u00d1\u0124\u00d1\u0122": 5530,
  "\u0120detect": 5531,
  "\u0120\u00cf\u0125": 5532,
  "\u0120lift": 5533,
  "\u0120clothes": 5534,
  "\u0120Stop": 5535,
  "\u00c3\u00b5": 5536,
  "met": 5537,
  "\u0120clin": 5538,
  "\u0120arr": 5539,
  "friend": 5540,
  "\u0120stuck": 5541,
  "Ye": 5542,
  "hand": 5543,
  "uma": 5544,
  "\u0120scri": 5545,
  "\u0120fucking": 5546,
  "ctors": 5547,
  "\u00d7\u00aa": 5548,
  "\u0120joining": 5549,
  "\u0120cette": 5550,
  "\u0120\u00d8\u00a3": 5551,
  "\u0120White": 5552,
  "\u0120ihr": 5553,
  "\u00ce\u0143": 5554,
  "\u00e3\u0123\u0143": 5555,
  "\u0120included": 5556,
  "esso": 5557,
  "\u0120acad": 5558,
  "bum": 5559,
  "\u0120sab": 5560,
  "\u0120\u00d0\u00b4\u00d0\u00bb\u00d1\u0131": 5561,
  "\u00e8\u00bf\u013b": 5562,
  "ufact": 5563,
  "\u0120Republic": 5564,
  "rim": 5565,
  "\u0120yellow": 5566,
  "\u0120limited": 5567,
  "TER": 5568,
  "\u0120Ty": 5569,
  "\u0120notes": 5570,
  "vest": 5571,
  "\u00d0\u00b8\u00d0\u00b7": 5572,
  "aled": 5573,
  "\u0120phase": 5574,
  "anda": 5575,
  "\u0120Mom": 5576,
  "RI": 5577,
  "\u0120immer": 5578,
  "mal": 5579,
  "\u0120inj": 5580,
  "\u0120yang": 5581,
  "udible": 5582,
  "\u00d0\u00b0\u00d0\u00b3": 5583,
  "\u0120sett": 5584,
  "\u0120magic": 5585,
  "\u0120ensure": 5586,
  "\u0120spring": 5587,
  "\u0120shock": 5588,
  "\u0120wheel": 5589,
  "\u00d0\u00be\u00d0\u00b3\u00d0\u00b4\u00d0\u00b0": 5590,
  "\u00e3\u0124\u012a": 5591,
  "\u0120cancer": 5592,
  "\u0120root": 5593,
  "\u00d0\u0132": 5594,
  "gency": 5595,
  "\u0120\u00eb\u012f": 5596,
  "ii": 5597,
  "\u0120output": 5598,
  "\u0120commit": 5599,
  "\u0120workers": 5600,
  "\u00ec\u0137\u0126\u00ec\u013c\u0136": 5601,
  "\u0120\u00d1\u0123\u00d0\u00b0\u00d0\u00bc": 5602,
  "vey": 5603,
  "\u0120peu": 5604,
  "\u0120civil": 5605,
  "isc": 5606,
  "\u0120brings": 5607,
  "\u00d1\u0122\u00d0\u00b0\u00d0\u00b2": 5608,
  "ania": 5609,
  "\u00c4\u0123": 5610,
  "craft": 5611,
  "mbol": 5612,
  "\u0120intellig": 5613,
  "bi": 5614,
  "acing": 5615,
  "you": 5616,
  "\u0120becoming": 5617,
  "\u0120Der": 5618,
  "ema": 5619,
  "\u00e5\u00b0\u00b1\u00e6\u013a\u00af": 5620,
  "\u0120ingred": 5621,
  "\u0120command": 5622,
  "\u0120update": 5623,
  "\u0120prem": 5624,
  "\u0120opened": 5625,
  "\u0126\u00a4": 5626,
  "\u00d0\u00b5\u00d0\u00bd\u00d0\u00b8\u00d0\u00b5": 5627,
  "\u0120gard": 5628,
  "\u0120statement": 5629,
  "\u0120screw": 5630,
  "\u0120prote": 5631,
  "\u0120cards": 5632,
  "\u0120task": 5633,
  "\u0120evening": 5634,
  "\u0120stitch": 5635,
  "inen": 5636,
  "\u0120Ber": 5637,
  "mark": 5638,
  "\u0120Dad": 5639,
  "\u0120\u00d0\u00b5\u00d1\u0123\u00d1\u0124\u00d1\u012e": 5640,
  "\u0120\u00d7\u0140\u00d7": 5641,
  "\u00ec\u0139\u012a": 5642,
  "\u0120ban": 5643,
  "\u0120clim": 5644,
  "\u0120freedom": 5645,
  "\u0120normally": 5646,
  "\u00d0\u00b5\u00d1\u0123\u00d1\u012e": 5647,
  "\u00e5\u00a6": 5648,
  "\u0120provided": 5649,
  "\u0120\u00ec\u0140\u0132": 5650,
  "\u0120\u00ec\u0137\u0126\u00eb\u012d\u012a": 5651,
  "\u0120Kim": 5652,
  "ieder": 5653,
  "\u00ec\u013f\u012e": 5654,
  "\u0120citiz": 5655,
  "\u0120bike": 5656,
  "\u0120bak": 5657,
  "\u0120noise": 5658,
  "\u0120climate": 5659,
  "izes": 5660,
  "\u00e5\u00be\u012e": 5661,
  "\u0120increasing": 5662,
  "\u0120THE": 5663,
  "\u0120liqu": 5664,
  "\u0120personally": 5665,
  "ef": 5666,
  "resp": 5667,
  "\u0120legs": 5668,
  "inder": 5669,
  "\u0120ped": 5670,
  "\u0120\u00eb\u00a7\u0130": 5671,
  "\u0120depend": 5672,
  "\u0120variety": 5673,
  "\u0120Israel": 5674,
  "\u0120wash": 5675,
  "\u00e5\u0128": 5676,
  "\u0120quiet": 5677,
  "\u0120James": 5678,
  "\u0120Jew": 5679,
  "\u0120forever": 5680,
  "\u0120Int": 5681,
  "\u0120counter": 5682,
  "urance": 5683,
  "\u0120Anyway": 5684,
  "care": 5685,
  "\u0120Only": 5686,
  "ci\u00c3\u00b3n": 5687,
  "adi": 5688,
  "\u0120Ev": 5689,
  "\u00eb\u012d\u012a\u00ea\u00b9\u012e": 5690,
  "\u0120\u00ce\u00b1": 5691,
  "\u0120slowly": 5692,
  "\u0120\u00d0\u00be\u00d0\u00b4": 5693,
  "\u0120noticed": 5694,
  "ieren": 5695,
  "\u0120fell": 5696,
  "\u0120\u00d0\u0133": 5697,
  "\u0120m\u00c3\u00aame": 5698,
  "\u0120whenever": 5699,
  "!)": 5700,
  "\u0120Hy": 5701,
  "\u00e5\u00bc": 5702,
  "ords": 5703,
  "usion": 5704,
  "\u0120Star": 5705,
  "\u0120\u00ed\u013a": 5706,
  "\u0120Mac": 5707,
  "\u00e4\u00b8\u012c": 5708,
  "iven": 5709,
  "\u0120\u00ec\u012d\u013e": 5710,
  "\u0120\u00ec\u0139\u0128": 5711,
  "\u0120Tur": 5712,
  "\u0120ger": 5713,
  "ris": 5714,
  "\u0120vez": 5715,
  "\u0120\u00d0\u00bb\u00d1\u0130": 5716,
  "\u0120versus": 5717,
  "\u00d8\u00a7\u00d8": 5718,
  "ocolate": 5719,
  "\u0120plane": 5720,
  "\u0120zo": 5721,
  "\u0120suit": 5722,
  "This": 5723,
  "\u0120nerv": 5724,
  "\u0120Acc": 5725,
  "\u00d1\u0125\u00d0\u00b6": 5726,
  "\u00ec\u0124\u00ac": 5727,
  "nh": 5728,
  "eme": 5729,
  "\u0120auss": 5730,
  "\u0120meas": 5731,
  "\u0120tr\u00c3\u00a8s": 5732,
  "\u00cf\u012b": 5733,
  "\u00d1\u0123\u00d0\u00bb\u00d0\u00b8": 5734,
  "\u0120Art": 5735,
  "\u0120Second": 5736,
  "\u00d0\u00be\u00d0\u00bb\u00d1\u012e\u00d0\u00ba\u00d0\u00be": 5737,
  "cho": 5738,
  "itect": 5739,
  "\u00d0\u00b5\u00d1\u0123\u00d1\u0124": 5740,
  "\u0120boss": 5741,
  "\u0120income": 5742,
  "\u0142\u00a4": 5743,
  "\u0120shad": 5744,
  "\u0120appropri": 5745,
  "\u0120Mal": 5746,
  "opt": 5747,
  "\u0120artist": 5748,
  "\u0120plays": 5749,
  "others": 5750,
  "\u0120Inter": 5751,
  "\u0120virus": 5752,
  "\u0120hung": 5753,
  "\u0120constant": 5754,
  "\u0120script": 5755,
  "\u0120snow": 5756,
  "ulf": 5757,
  "ket": 5758,
  "\u0120devices": 5759,
  "\u0120metal": 5760,
  "ights": 5761,
  "\u00ec\u0126\u00b8": 5762,
  "\u0120sales": 5763,
  "\u0120veget": 5764,
  "\u0120collection": 5765,
  "\u0120via": 5766,
  "ker": 5767,
  "\u0120gotten": 5768,
  "OW": 5769,
  "i\u00c3\u00a9n": 5770,
  "\u0120accur": 5771,
  "\u0120wave": 5772,
  "ulty": 5773,
  "\u0120Air": 5774,
  "\u0120leading": 5775,
  "icing": 5776,
  "\u0120central": 5777,
  "\u0120Christian": 5778,
  "fr": 5779,
  "\u0120Although": 5780,
  "\u0120songs": 5781,
  "\u0120fif": 5782,
  "\u00d0\u00bd\u00d1\u012d\u00d1\u0127": 5783,
  "\u0120belong": 5784,
  "ossible": 5785,
  "\u00ec\u00b0": 5786,
  "\u0120photos": 5787,
  "isl": 5788,
  "\u0120relax": 5789,
  "sa": 5790,
  "USIC": 5791,
  "\u00ea\u00b7": 5792,
  "\u0120manufact": 5793,
  "\u0120Twitter": 5794,
  "\u0120dangerous": 5795,
  "\u0120hyd": 5796,
  "lear": 5797,
  "iant": 5798,
  "\u0120\u00e2\u0122\u00a6": 5799,
  "\u0120suddenly": 5800,
  "\u0120laugh": 5801,
  "\u0120angle": 5802,
  "\u0120Got": 5803,
  "\u0120worried": 5804,
  "\u00d0\u00be\u00d0\u00b5": 5805,
  "\u0120pap": 5806,
  "\u0120Mart": 5807,
  "eno": 5808,
  "\u0120battery": 5809,
  "\u0120\u00d0\u00bf\u00d0\u00be\u00d1\u0123": 5810,
  "\u0120lights": 5811,
  "\u0120arms": 5812,
  "\u0120Abs": 5813,
  "mes": 5814,
  "\u00e2\u0122\u0135": 5815,
  "useum": 5816,
  "\u0120tea": 5817,
  "\u0120Mic": 5818,
  "\u0120former": 5819,
  "ography": 5820,
  "\u0120applications": 5821,
  "\u0120Dire": 5822,
  "\u00e7\u0126\u00b6": 5823,
  "\u0120feedback": 5824,
  "itchen": 5825,
  "yorum": 5826,
  "ued": 5827,
  "igt": 5828,
  "\u00c6\u00b0\u00e1\u00bb": 5829,
  "osition": 5830,
  "\u0120Del": 5831,
  "\u0120\u00ed\u0137\u013a\u00eb": 5832,
  "\u0120Back": 5833,
  "ads": 5834,
  "\u0120prime": 5835,
  "\u00ec\u00a3\u00bc": 5836,
  "\u00ec\u00a3\u0142": 5837,
  "\u00d7\u0133": 5838,
  "\u0120mut": 5839,
  "].": 5840,
  "\u0120\u00d0\u0139": 5841,
  "loc": 5842,
  "kin": 5843,
  "\u0120expert": 5844,
  "\u0120alright": 5845,
  "ungs": 5846,
  "\u0120supply": 5847,
  "\u0120leadership": 5848,
  "\u0120Fra": 5849,
  "\u0120typically": 5850,
  "\u0120sel": 5851,
  "\u0120trees": 5852,
  "\u012022": 5853,
  "har": 5854,
  "\u0120worst": 5855,
  "\u0120busy": 5856,
  "anto": 5857,
  "\u0120Up": 5858,
  "\u0120Bas": 5859,
  "\u0120presentation": 5860,
  "\u0120strange": 5861,
  "\u0120thin": 5862,
  "\u00d1\u0124\u00d0\u00b5": 5863,
  "\u0120vehicle": 5864,
  "\u0120\u00d0\u00b4\u00d0\u00be": 5865,
  "cellent": 5866,
  "70": 5867,
  "\u0120tired": 5868,
  "\u0120crisis": 5869,
  "\u0120tiny": 5870,
  "asy": 5871,
  "\u0120ran": 5872,
  "\u00e9\u0129": 5873,
  "\u0120forces": 5874,
  "\u0120\u00d0\u00be\u00d1\u0129": 5875,
  "\u0120identify": 5876,
  "\u0120assess": 5877,
  "\u00d0\u00b8\u00d1\u0124\u00d0\u00b5": 5878,
  "SE": 5879,
  "\u0120creative": 5880,
  "\u00e7\u0141": 5881,
  "\u0120department": 5882,
  "\u0120initial": 5883,
  "\u00e6\u012a\u0133\u00e5\u0122\u0133": 5884,
  "\u0120Dam": 5885,
  "akt": 5886,
  "vere": 5887,
  "\u0120infect": 5888,
  "\u0120pump": 5889,
  "\u00e1\u00ba\u00a1": 5890,
  "\u0120viel": 5891,
  "\u0120rare": 5892,
  "\u0120dot": 5893,
  "ashion": 5894,
  "empl": 5895,
  "\u0120flex": 5896,
  "\u0120kon": 5897,
  "\u0120truck": 5898,
  "\u0120lect": 5899,
  "\u0120plastic": 5900,
  "law": 5901,
  "\u0120likes": 5902,
  "\u0120rough": 5903,
  "\u0120MAT": 5904,
  "\u00ed\u0140\u012a": 5905,
  "\u0120commer": 5906,
  "\u0120asse": 5907,
  "\u0120cake": 5908,
  "\u0120actions": 5909,
  "\u0120adm": 5910,
  "\u0120otherwise": 5911,
  "\u0120Health": 5912,
  "\u0120colle": 5913,
  "\u00e0\u00b9\u0122\u00e0\u00b8": 5914,
  "\u0120rub": 5915,
  "\u00e5\u00be\u0139": 5916,
  "\u00e6\u0136": 5917,
  "\u0120scr": 5918,
  "\u0120zum": 5919,
  "\u0120Him": 5920,
  "\u0120champ": 5921,
  "\u0120concerned": 5922,
  "\u0120500": 5923,
  "\u0120plate": 5924,
  "\u0120Out": 5925,
  "\u0120donc": 5926,
  "\u0120equipment": 5927,
  "\u0120taught": 5928,
  "lled": 5929,
  "\u0120\u00ed\u013b": 5930,
  "iva": 5931,
  "\u0120motor": 5932,
  "\u00c2\u00bb": 5933,
  "\u0120guide": 5934,
  "\u00e5\u012b": 5935,
  "\u0120stopped": 5936,
  "\u0120rat": 5937,
  "\u0120labor": 5938,
  "\u0120aim": 5939,
  "\u0120prepare": 5940,
  "\u0120\u00d1\u012a": 5941,
  "\u0120shooting": 5942,
  "anned": 5943,
  "cript": 5944,
  "\u0120enemy": 5945,
  "\u0120depends": 5946,
  "\u0120nav": 5947,
  "\u0120ber": 5948,
  "\u0120lands": 5949,
  "\u0120univers": 5950,
  "iu": 5951,
  "\u0120factor": 5952,
  "oking": 5953,
  "\u0120carbon": 5954,
  "but": 5955,
  "\u0120Love": 5956,
  "eld": 5957,
  "\u0120\u00ce\u00b5": 5958,
  "\u0120ga": 5959,
  "\u0120\u00c3\u00a9s": 5960,
  "\u0120bread": 5961,
  "\u0120volt": 5962,
  "\u00ed\u012c": 5963,
  "\u0120waste": 5964,
  "\u0120keeps": 5965,
  "\u00e6\u012b\u0122": 5966,
  "\u0120stor": 5967,
  "\u0120honor": 5968,
  "\u0120unless": 5969,
  "\u0120colum": 5970,
  "\u0120\u00eb\u012e\u0122": 5971,
  "\u0120plants": 5972,
  "Yeah": 5973,
  "\u0120includes": 5974,
  "\u00e4\u00b8\u0143": 5975,
  "\u0120ox": 5976,
  "\u0120peut": 5977,
  "\u00eb\u00a7\u012e": 5978,
  "\u00ec\u0125\u0123": 5979,
  "istry": 5980,
  "\u00e0\u00b8\u00b1": 5981,
  "\u0120Department": 5982,
  "anta": 5983,
  "\u0120finger": 5984,
  "\u0120stretch": 5985,
  "\u0120symbol": 5986,
  "\u0120neighbor": 5987,
  "\u00e6\u00ac": 5988,
  "\u00ea\u00b0\u0126": 5989,
  "~~": 5990,
  "\u0120\u00d1\u0124\u00d1\u012d": 5991,
  "\u0120Aber": 5992,
  "kes": 5993,
  "\u0120massive": 5994,
  "\u0120CH": 5995,
  "\u0120Sal": 5996,
  "\u00d7\u0142": 5997,
  "\u00e3\u0124\u0134": 5998,
  "\u0120dynam": 5999,
  "ache": 6000,
  "\u0120Pre": 6001,
  "\u0120monitor": 6002,
  "ented": 6003,
  "EO": 6004,
  "\u0120raised": 6005,
  "istics": 6006,
  "\u00da\u00a9": 6007,
  "\u0120vou": 6008,
  "iten": 6009,
  "\u00a1\u00b0": 6010,
  "\u0120businesses": 6011,
  "\u0120earn": 6012,
  "\u0120mobile": 6013,
  "idade": 6014,
  "\u0120habe": 6015,
  "yr": 6016,
  "lict": 6017,
  "\u0120conduct": 6018,
  "\u0120federal": 6019,
  "\u0120wo": 6020,
  "bu": 6021,
  "\u0120none": 6022,
  "\u0120teachers": 6023,
  "\u0120\u00d8\u00a7\u00d9\u0126\u00d8": 6024,
  "\u00e9\u0123\u0135": 6025,
  "idents": 6026,
  "\u00d8\u00a7\u00d9\u0126": 6027,
  "\u0120trend": 6028,
  "\u00d0\u00b5\u00d0\u00b6": 6029,
  "\u0120album": 6030,
  "\u0120mich": 6031,
  "based": 6032,
  "\u00e0\u00b8\u00b5": 6033,
  "\u0120transition": 6034,
  "\u0120\u00d0\u00bd\u00d0\u00be": 6035,
  "\u00c3\u00b5es": 6036,
  "host": 6037,
  "edy": 6038,
  "\u0120Prof": 6039,
  "pan": 6040,
  "ijn": 6041,
  "\u0120capacity": 6042,
  "undo": 6043,
  "\u0120\u00d7\u0133\u00d7": 6044,
  "\u0120breath": 6045,
  "\u0120\u00d0\u00bc\u00d0\u00b5\u00d0\u00bd": 6046,
  "\u0120m\u00c3\u00bc": 6047,
  "\u00ed\u013b": 6048,
  "\u0120Aut": 6049,
  "hington": 6050,
  "\u0120nor": 6051,
  "\u0120gain": 6052,
  "point": 6053,
  "Yes": 6054,
  "\u0120\u00d8\u00aa": 6055,
  "\u0120Na": 6056,
  "\u00c3\u00a5r": 6057,
  "\u0120i\u00c3\u00a7": 6058,
  "\u0120Mary": 6059,
  "\u0120spin": 6060,
  "\u0120anti": 6061,
  "\u00e5\u0132\u00a7": 6062,
  "\u0120somehow": 6063,
  "\u0120laws": 6064,
  "\u0120moments": 6065,
  "\u0120gre": 6066,
  "\u0120moves": 6067,
  "\u0120Would": 6068,
  "\u0120predict": 6069,
  "\u0120vra": 6070,
  "\u01202019": 6071,
  "\u00b6\u0126": 6072,
  "\u0120fundament": 6073,
  "25": 6074,
  "\u0120pure": 6075,
  "\u0120wow": 6076,
  "\u0120island": 6077,
  "\u0120investment": 6078,
  "\u0120bath": 6079,
  "\u0120Ya": 6080,
  "\u0120harder": 6081,
  "\u0120tips": 6082,
  "\u00e5\u0139": 6083,
  "\u0120electron": 6084,
  "\u0120Bob": 6085,
  "\u0120bond": 6086,
  "odies": 6087,
  "\u0120Aug": 6088,
  "\u0120gibt": 6089,
  "\u0120chair": 6090,
  "\u0120twice": 6091,
  "wood": 6092,
  "\u0120clar": 6093,
  "\u0120mask": 6094,
  "\u0120honestly": 6095,
  "\u01202018": 6096,
  "ties": 6097,
  "',": 6098,
  "\u0120pens": 6099,
  "\u0120surprised": 6100,
  "\u0120communication": 6101,
  "\u00e3\u0123\u00a3\u00e3\u0123\u00a6": 6102,
  "\u0120spr": 6103,
  "\u0120whose": 6104,
  "\u0120stars": 6105,
  "\u00d7\u0132\u00d7": 6106,
  "\u0120\u00e2\u0122\u012d": 6107,
  "\u0120properly": 6108,
  "\u0120grew": 6109,
  "osing": 6110,
  "\u0120divers": 6111,
  "AD": 6112,
  "\u0120empt": 6113,
  "\u0120expression": 6114,
  "\u00e1\u00ba\u00bf": 6115,
  "\u0120Pal": 6116,
  "\u00e3\u0123\u012c": 6117,
  "\u0120justice": 6118,
  "\u0120pair": 6119,
  "wo": 6120,
  "\u0120seat": 6121,
  "orter": 6122,
  "\u0120links": 6123,
  "\u0120Mer": 6124,
  "\u0120rend": 6125,
  "\u00d0\u00bd\u00d0\u00be\u00d0\u00b5": 6126,
  "upid": 6127,
  "\u0120Hel": 6128,
  "\u0120March": 6129,
  "\u0120Lo": 6130,
  "\u00d1\u0123\u00d1\u012e": 6131,
  "\u0120hasn": 6132,
  "\u0120evalu": 6133,
  "\u00e3\u0123\u0131": 6134,
  "\u00e5\u00a4\u00a9": 6135,
  "ilos": 6136,
  "\u0120funding": 6137,
  "\u0120ven": 6138,
  "uan": 6139,
  "\u0120Master": 6140,
  "\u0120Ol": 6141,
  "\u0120Fre": 6142,
  "\u0120yap": 6143,
  "\u0120Sir": 6144,
  "sch": 6145,
  "\u0120mistake": 6146,
  "aman": 6147,
  "\u0120dinner": 6148,
  "\u0120Washington": 6149,
  "\u0120organizations": 6150,
  "\u0120\u00d0\u00b6\u00d0\u00b5": 6151,
  "aving": 6152,
  "\u0120v\u00c3\u0143": 6153,
  "\u0120birthday": 6154,
  "\u0120bear": 6155,
  "\u0120\u00d9\u0123": 6156,
  "\u0120afford": 6157,
  "\u0120reven": 6158,
  "\u0120relationships": 6159,
  "rough": 6160,
  "\u0120Time": 6161,
  "\u0120tag": 6162,
  "\u0120Sun": 6163,
  "uary": 6164,
  "\u0120Po": 6165,
  "car": 6166,
  "abilities": 6167,
  "\u0120prison": 6168,
  "\u0120lic": 6169,
  "\u00ec\u0142\u0137": 6170,
  "idden": 6171,
  "\u0120species": 6172,
  "\u00e9\u00bb": 6173,
  "\u0120firm": 6174,
  "\u0120score": 6175,
  "\u0120dit": 6176,
  "\u0120spect": 6177,
  "\u0120pel": 6178,
  "\u0120complicated": 6179,
  "\u00e6\u00a8\u00a3": 6180,
  "\u0120rank": 6181,
  "\u0120opposite": 6182,
  "\u0120picked": 6183,
  "\u0120\u00d0\u00ba\u00d0\u00be\u00d0\u00bd": 6184,
  "eler": 6185,
  "\u0120mig": 6186,
  "\u0120Sl": 6187,
  "\u0120Net": 6188,
  "\u0120neck": 6189,
  "\u0120France": 6190,
  "\u0120technical": 6191,
  "\u00e0\u00b8\u00a1": 6192,
  "\u0120miles": 6193,
  "\u0120primary": 6194,
  "\u0120sein": 6195,
  "ses": 6196,
  "\u0120laughs": 6197,
  "bra": 6198,
  "\u00c5\u013dci": 6199,
  "riage": 6200,
  "\u0120nic": 6201,
  "eters": 6202,
  "\u0120\u00c3\u00aa": 6203,
  "ologies": 6204,
  "\u0120IS": 6205,
  "rad": 6206,
  "udo": 6207,
  "\u00c4\u00b1nd": 6208,
  "mar": 6209,
  "\u0120exch": 6210,
  "\u0120competition": 6211,
  "\u0120aussi": 6212,
  "\u0120Serv": 6213,
  "\u0120rent": 6214,
  "\u0120chocolate": 6215,
  "\u0120wieder": 6216,
  "\u0120nearly": 6217,
  "\u0120speech": 6218,
  "\u0120unc": 6219,
  "\u0120param": 6220,
  "\u0120British": 6221,
  "\u0120remain": 6222,
  "\u00e0\u00b8\u0123": 6223,
  "urt": 6224,
  "\u0120\u00d8\u00b9": 6225,
  "\u0120crack": 6226,
  "ails": 6227,
  "\u0120promise": 6228,
  "\u0120paying": 6229,
  "i\u00c3\u0141": 6230,
  "\u0120adapt": 6231,
  "\u00d0\u00b0\u00d0\u00bb\u00d0\u00b0": 6232,
  "\u0120movies": 6233,
  "\u0120wire": 6234,
  "\u0141\u00ac": 6235,
  "\u00e6\u013e\u0125": 6236,
  "\u0120terrible": 6237,
  "\u0120s\u00c3\u00b3": 6238,
  "\u0120perfectly": 6239,
  "\u00e5\u0133\u00a2": 6240,
  "ordin": 6241,
  "\u0120j\u00c3\u00a1": 6242,
  "\u0120impossible": 6243,
  "\u0120Three": 6244,
  "\u0120nh": 6245,
  "\u0120turning": 6246,
  "rum": 6247,
  "\u0120Bel": 6248,
  "igg": 6249,
  "\u0120responsible": 6250,
  "\u00d0\u00b8\u00d0\u00b9": 6251,
  "\u0120incredibly": 6252,
  "wi": 6253,
  "iano": 6254,
  "\u0120humans": 6255,
  "\u0120\u00c3\u0129": 6256,
  "\u0120settings": 6257,
  "\u0120joy": 6258,
  "oot": 6259,
  "\u0120dealing": 6260,
  "illed": 6261,
  "\u0120surround": 6262,
  "\u0120followed": 6263,
  "\u0120possibly": 6264,
  "\u0120initi": 6265,
  "sten": 6266,
  "\u0120pros": 6267,
  "\u0120candid": 6268,
  "\u0120assign": 6269,
  "\u0120violence": 6270,
  "Well": 6271,
  "\u0120rise": 6272,
  "PS": 6273,
  "\u0120tamb\u00c3\u00a9m": 6274,
  "\u0120\u00eb\u0135\u00a4": 6275,
  "iance": 6276,
  "yan": 6277,
  "\u0120audio": 6278,
  "\u0120Bet": 6279,
  "\u0120Americans": 6280,
  "\u0120Ass": 6281,
  "ischen": 6282,
  "\u00ec\u0140\u0127": 6283,
  "\u0120ultimately": 6284,
  "\u0120polic": 6285,
  "\u0120majority": 6286,
  "\u00e9\u0122\u013b\u00e5\u0122\u012d": 6287,
  "\u0120Finally": 6288,
  "erap": 6289,
  "\u0120guard": 6290,
  "\u0120MATT": 6291,
  "\u0120brown": 6292,
  "\u00d0\u00bc\u00d0\u00b8": 6293,
  "\u0120cha": 6294,
  "\u0120Holy": 6295,
  "\u0120nervous": 6296,
  "ipping": 6297,
  "\u00c4\u013bd": 6298,
  "\u0120Sa": 6299,
  "\u0135\u013e\u00eb": 6300,
  "\u00b6\u0122": 6301,
  "lie": 6302,
  "\u00e7\u013e\u0141": 6303,
  "\u0120nuc": 6304,
  "\u0120Apr": 6305,
  "\u00e9\u013d": 6306,
  "\u0120Korea": 6307,
  "ego": 6308,
  "\u0120Canada": 6309,
  "\u0120k\u00c3\u00b6nnen": 6310,
  "\u0120compar": 6311,
  "\u0120ganz": 6312,
  "\u0120Mais": 6313,
  "\u0120theme": 6314,
  "\u0120ki": 6315,
  "\u0120drawing": 6316,
  "azon": 6317,
  "\u0120Off": 6318,
  "tt": 6319,
  "\u0120Wind": 6320,
  "\u0120todos": 6321,
  "\u0120obvious": 6322,
  "\u00d0\u00bd\u00d0\u00b0\u00d1\u0131": 6323,
  "IM": 6324,
  "\u0120\u00d0\u0142": 6325,
  "well": 6326,
  "\u0120blow": 6327,
  "\u0120hook": 6328,
  "\u0120circle": 6329,
  "\u0120\u00eb\u00b3\u00b4": 6330,
  "\u0120architect": 6331,
  "\u0120Kr": 6332,
  "\u0120c\u00c3\u00b3": 6333,
  "\u0120protection": 6334,
  "ega": 6335,
  "\u00e5\u0129": 6336,
  "\u0120watched": 6337,
  "\u0120answers": 6338,
  "\u0120diet": 6339,
  "ivo": 6340,
  "\u0120powder": 6341,
  "\u0120yours": 6342,
  "\u0120highest": 6343,
  "\u00e7\u0124\u00ba": 6344,
  "FF": 6345,
  "\u00e5\u00ba": 6346,
  "\u0120boys": 6347,
  "\u00c3\u00b6yle": 6348,
  "\u0120lunch": 6349,
  "\u00e8\u00ac\u013f": 6350,
  "\u0120II": 6351,
  "\u0120sets": 6352,
  "\u0120mole": 6353,
  "\u00db\u0123": 6354,
  "\u0120winter": 6355,
  "\u0120lucky": 6356,
  "\u0120responsibility": 6357,
  "\u0120signal": 6358,
  "\u0120wondering": 6359,
  "\u0120ax": 6360,
  "\u0120cooking": 6361,
  "\u00d0\u00be\u00d0\u00b2\u00d0\u00be\u00d1\u0122": 6362,
  "leg": 6363,
  "\u0120\u00d0\u00bf\u00d0\u00be\u00d1\u0124": 6364,
  "\u0120surprise": 6365,
  "\u0120democr": 6366,
  "\u0120loop": 6367,
  "\u0120jag": 6368,
  "\u0120curious": 6369,
  "\u0120marketing": 6370,
  "\u00d0\u013f": 6371,
  "aron": 6372,
  "\u0120Apple": 6373,
  "\u0120virtual": 6374,
  "\u0120198": 6375,
  "noon": 6376,
  "\u0120Met": 6377,
  "\u00d0\u00be\u00d1\u0123\u00d1\u0124\u00d0\u00be": 6378,
  "\u00d0\u00be\u00d0\u00b1\u00d1\u012d": 6379,
  "itu": 6380,
  "\u0120Aw": 6381,
  "\u0120buying": 6382,
  "\u0120restaurant": 6383,
  "\u0120Bud": 6384,
  "\u0120doubt": 6385,
  "\u0120grant": 6386,
  "\u0120verd": 6387,
  "\u0120cash": 6388,
  "\u0120faculty": 6389,
  "That": 6390,
  "\u0120Ein": 6391,
  "\u00e5\u00a4\u013c": 6392,
  "\u0120wed": 6393,
  "itness": 6394,
  "\u0120Mag": 6395,
  "nel": 6396,
  "\u0120narr": 6397,
  "\u0120accident": 6398,
  "\u0120medium": 6399,
  "ements": 6400,
  "\u0120crow": 6401,
  "night": 6402,
  "\u00ec\u013f\u00bc": 6403,
  "\u00e4\u00b9\u0141": 6404,
  "\u0120library": 6405,
  "\u00d0\u00b0\u00d1\u0130\u00d1\u0124": 6406,
  "\u0120tambi\u00c3\u00a9n": 6407,
  "\u0120reference": 6408,
  "\u0120fourth": 6409,
  "house": 6410,
  "vention": 6411,
  "\u0120filled": 6412,
  "\u0120Cour": 6413,
  "ibr": 6414,
  "\u0120ng": 6415,
  "\u0120developing": 6416,
  "\u0120provides": 6417,
  "\u0120poll": 6418,
  "\u0120traffic": 6419,
  "arently": 6420,
  "\u00e0\u00ae\u0141": 6421,
  "\u0120forms": 6422,
  "\u0120client": 6423,
  "\u0120gentle": 6424,
  "\u0120muss": 6425,
  "\u0120Congress": 6426,
  "\u0120Indian": 6427,
  "cean": 6428,
  "\u0120pil": 6429,
  "\u0120czy": 6430,
  "stood": 6431,
  "uty": 6432,
  "\u0120n\u00c3\u00a4": 6433,
  "\u0120spending": 6434,
  "\u0120construction": 6435,
  "inaudible": 6436,
  "\u0120\u00eb\u00a7\u012a": 6437,
  "\u012a\u00eb\u00ac\u00b4": 6438,
  "\u0120\u00ec\u0125\u013f": 6439,
  "oma": 6440,
  "osen": 6441,
  "ago": 6442,
  "\u0120largest": 6443,
  "\u00e3\u0127\u012d\u00e3\u0127\u012d": 6444,
  "\u0120universe": 6445,
  "bes": 6446,
  "osa": 6447,
  "\u0120\u00d0\u00b5\u00d0\u00b3\u00d0\u00be": 6448,
  "\u0120dude": 6449,
  "\u0120MAR": 6450,
  "\u0120indeed": 6451,
  "\u00ce\u00b5\u00ce\u00b9": 6452,
  "\u0120managed": 6453,
  "\u0120Should": 6454,
  "So": 6455,
  "\u0120applied": 6456,
  "\u0120fairly": 6457,
  "\u0120Den": 6458,
  "\u0120analy": 6459,
  "\u0120constantly": 6460,
  "\u00d1\u0123\u00d0\u00bf": 6461,
  "How": 6462,
  "\u0120Say": 6463,
  "encies": 6464,
  "\u0120PC": 6465,
  "\u0120eggs": 6466,
  "\u00e0\u00ae\u00b0": 6467,
  "\u0120eth": 6468,
  "\u0120Ent\u00c3\u00a3o": 6469,
  "inar": 6470,
  "iot": 6471,
  "\u0120cz": 6472,
  "\u0120European": 6473,
  "\u00e3\u0123\u012a": 6474,
  "\u0120AM": 6475,
  "\u0120c\u00c3\u00a1": 6476,
  "\u0120radio": 6477,
  "\u00a7\u012e": 6478,
  "\u0120hide": 6479,
  "\u00e4\u00bb\u012c": 6480,
  "\u0120Start": 6481,
  "\u0120club": 6482,
  "\u0120Hope": 6483,
  "\u0120efforts": 6484,
  "lusion": 6485,
  "\u0120cities": 6486,
  "hone": 6487,
  "\u0120reached": 6488,
  "\u0120guid": 6489,
  "roid": 6490,
  "\u0120harm": 6491,
  "\u0120cutting": 6492,
  "\u0120bul": 6493,
  "18": 6494,
  "iest": 6495,
  "\u0120Mex": 6496,
  "\u0120iron": 6497,
  "\u00e7\u0141\u00a5": 6498,
  "\u0120afternoon": 6499,
  "\u0120hall": 6500,
  "\u0120przy": 6501,
  "\u0120gosh": 6502,
  "\u0120influence": 6503,
  "\u0120\u00d0\u00b2\u00d0\u00b8\u00d0\u00b4": 6504,
  "\u0120increased": 6505,
  "\u0120Minister": 6506,
  "\u0120disci": 6507,
  "\u0120Peter": 6508,
  "\u0120vert": 6509,
  "\u0120menu": 6510,
  "\u0120selling": 6511,
  "urally": 6512,
  "\u0120quote": 6513,
  "\u0120\u00c2\u00a1": 6514,
  "\u0120continues": 6515,
  "mpre": 6516,
  "\u0120\u00c5\u0141ey": 6517,
  "itution": 6518,
  "\u0120\u00d0\u00bd\u00d0\u00b0\u00d1\u0123": 6519,
  "cles": 6520,
  "\u0120German": 6521,
  "czy": 6522,
  "\u0120\u00d0\u00a3": 6523,
  "Be": 6524,
  "\u0120kitchen": 6525,
  "\u0120Try": 6526,
  "ipe": 6527,
  "\u0120icon": 6528,
  "arp": 6529,
  "\u0120providing": 6530,
  "\u0120Trans": 6531,
  "\u0120technique": 6532,
  "\u0120h\u00c3\u00a4r": 6533,
  "\u0120infrast": 6534,
  "\u0120susp": 6535,
  "\u00c3\u00bcck": 6536,
  "icip": 6537,
  "\u0120\u00d0\u0137": 6538,
  "\u0120cin": 6539,
  "\u00ec\u0138\u00b4\u00eb": 6540,
  "\u0120prz": 6541,
  "\u0120component": 6542,
  "\u0120bye": 6543,
  "\u0120Bible": 6544,
  "izer": 6545,
  "Ch": 6546,
  "\u0120solutions": 6547,
  "\u0120accompl": 6548,
  "\u01202016": 6549,
  "IE": 6550,
  "\u0120Ta": 6551,
  "\u0120assume": 6552,
  "\u0120liquid": 6553,
  "\u0120\u00eb\u00a8\u00b9": 6554,
  "\u0120quarter": 6555,
  "\u0120female": 6556,
  "\u0120Think": 6557,
  "\u0120status": 6558,
  "itute": 6559,
  "\u0120coach": 6560,
  "\u0120rein": 6561,
  "\u0120combination": 6562,
  "\u00e8\u00b7": 6563,
  "\u0120Ter": 6564,
  "\u0120objects": 6565,
  "\u0120district": 6566,
  "\u0120makeup": 6567,
  "\u0120murder": 6568,
  "was": 6569,
  "fen": 6570,
  "\u0120bowl": 6571,
  "\u0120published": 6572,
  "\u0120sports": 6573,
  "\u00e3\u0123\u00a1": 6574,
  "\u0120identity": 6575,
  "\u0120seemed": 6576,
  "\u0120acting": 6577,
  "\u00d0\u00bb\u00d1\u0130": 6578,
  "rix": 6579,
  "\u0120upload": 6580,
  "\u0120hast": 6581,
  "\u0120boat": 6582,
  "\u0120Mod": 6583,
  "rio": 6584,
  "\u0120=": 6585,
  "\u0120cycle": 6586,
  "\u00af\u00b8": 6587,
  "\u0120loud": 6588,
  "usted": 6589,
  "coming": 6590,
  "\u01202017": 6591,
  "\u0120ont": 6592,
  "\u0120legisl": 6593,
  "\u0120struct": 6594,
  "\u0120Something": 6595,
  "\u0120conflict": 6596,
  "\u0120upper": 6597,
  "\u0120manager": 6598,
  "\u0120mort": 6599,
  "\u0120fra": 6600,
  "\u0120\u00c4\u00b0": 6601,
  "\u0120Mike": 6602,
  "\u0120Work": 6603,
  "\u0120n\u00c3\u00b3": 6604,
  "phere": 6605,
  "\u0120\u00ec\u0124\u00ac\u00eb": 6606,
  "\u0120Land": 6607,
  "\u0120filter": 6608,
  "\u0120promot": 6609,
  "\u00e6\u00b0": 6610,
  "\u00e6\u013b\u0124": 6611,
  "\u0137\u00bc": 6612,
  "\u0120recording": 6613,
  "\u00d7\u013f": 6614,
  "\u0120associated": 6615,
  "\u0120fuel": 6616,
  "under": 6617,
  "\u0120election": 6618,
  "\u0120employees": 6619,
  "\u0120Comp": 6620,
  "\u00d1\u0122\u00d1\u0125\u00d0\u00b3": 6621,
  "\u0120Wo": 6622,
  "rol": 6623,
  "\u0120saved": 6624,
  "\u0120Hon": 6625,
  "\u0120Vi": 6626,
  "\u00e5\u012a\u0128": 6627,
  "aca": 6628,
  "pret": 6629,
  "\u0120wet": 6630,
  "\u0120stupid": 6631,
  "\u0120lad": 6632,
  "\u0120fest": 6633,
  "\u0120wake": 6634,
  "\u0120\u00d0\u00b8\u00d0\u00bd": 6635,
  "\u0120greatest": 6636,
  "\u0120Jim": 6637,
  "\u0120seriously": 6638,
  "\u0120\u00ec\u00b9": 6639,
  "\u0120feelings": 6640,
  "\u0120300": 6641,
  "iation": 6642,
  "\u0120beauty": 6643,
  "\u0120\u00ec\u0140\u013a": 6644,
  "\u0120san": 6645,
  "\u0135\u0142": 6646,
  "\u0120-(": 6647,
  "\u0120conscious": 6648,
  "\u0120\u00d0\u00b4\u00d0\u00b5\u00d0\u00bb": 6649,
  "bye": 6650,
  "\u00e7\u013b": 6651,
  "Man": 6652,
  "\u0120lets": 6653,
  "\u0120shoes": 6654,
  "yd": 6655,
  "\u00e4\u00b9\u012a": 6656,
  "\u0120disappe": 6657,
  "\u0120County": 6658,
  "\u0120Scott": 6659,
  "\u0120butt": 6660,
  "\u0120aqu\u00c3\u0143": 6661,
  "\u0120config": 6662,
  "respond": 6663,
  "LAUGH": 6664,
  "\u00a9\u00eb\u012d\u012a\u00eb\u012d\u00a4": 6665,
  "\u0120divided": 6666,
  "\u0120acqu": 6667,
  "\u0120zone": 6668,
  "\u0120komm": 6669,
  "a\u00c3\u00a7\u00c3\u00a3o": 6670,
  "\u00ec\u00a7\u013e": 6671,
  "cut": 6672,
  "\u012023": 6673,
  "\u0120maximum": 6674,
  "rog": 6675,
  "\u0120runs": 6676,
  "\u0120components": 6677,
  "\u0120arrived": 6678,
  "\u0120confident": 6679,
  "\u00d1\u0122\u00d0\u00be\u00d0\u00b2": 6680,
  "\u0120height": 6681,
  "\u0120proced": 6682,
  "EM": 6683,
  "\u0120\u00d0\u0143\u00d1\u0124\u00d0\u00be": 6684,
  "\u0120Men": 6685,
  "\u0120talks": 6686,
  "\u0120confidence": 6687,
  "\u0120Chris": 6688,
  "\u0120leads": 6689,
  "\u0120nose": 6690,
  "fall": 6691,
  "bb": 6692,
  "\u0120Nothing": 6693,
  "iser": 6694,
  "\u0120independent": 6695,
  "\u0120minor": 6696,
  "\u0120sym": 6697,
  "len": 6698,
  "cience": 6699,
  "\u0120fashion": 6700,
  "\u0120sexual": 6701,
  "\u0120bun": 6702,
  "here": 6703,
  "\u0120soil": 6704,
  "\u0120diese": 6705,
  "\u0120shap": 6706,
  "\u0120empty": 6707,
  "\u0120journal": 6708,
  "agon": 6709,
  "\u0120Their": 6710,
  "\u0120weekend": 6711,
  "\u00c3\u0143t": 6712,
  "\u0120error": 6713,
  "\u0120nar": 6714,
  "\u00c3\u00b8": 6715,
  "\u00e8\u00a9": 6716,
  "ancy": 6717,
  "\u0120\u00ec\u0137\u012c": 6718,
  "\u0120forest": 6719,
  "\u0120hacer": 6720,
  "\u0120missed": 6721,
  "\u00e3\u0123\u0137": 6722,
  "\u00e5\u0131\u00af\u00e4\u00bb\u00a5": 6723,
  "\u0120evil": 6724,
  "\u0120storage": 6725,
  "\u0120singing": 6726,
  "inha": 6727,
  "\u0120knock": 6728,
  "\u0120impress": 6729,
  "\u0120\u00d0\u00be\u00d1\u0129\u00d0\u00b5\u00d0\u00bd\u00d1\u012e": 6730,
  "\u0120Gold": 6731,
  "\u0120Sur": 6732,
  "\u0120Port": 6733,
  "\u00e5\u0130\u00bb": 6734,
  "\u0120Lond": 6735,
  "\u0120fazer": 6736,
  "oty": 6737,
  "oto": 6738,
  "\u0120anx": 6739,
  "\u0120William": 6740,
  "\u0120existing": 6741,
  "place": 6742,
  "\u0120CD": 6743,
  "\u00ce\u00b3": 6744,
  "\u0120College": 6745,
  "lor": 6746,
  "\u0120East": 6747,
  "sen": 6748,
  "fach": 6749,
  "oft": 6750,
  "\u0120experienced": 6751,
  "\u0120loves": 6752,
  "imm": 6753,
  "\u0120poly": 6754,
  "\u0120esse": 6755,
  "\u00ec\u00a4": 6756,
  "\u0120Grand": 6757,
  "\u00e8\u00a7": 6758,
  "cher": 6759,
  "\u0120victim": 6760,
  "\u0120Ges": 6761,
  "\u00d0\u00bb\u00d1\u012e": 6762,
  "vision": 6763,
  "\u0120tall": 6764,
  "\u0120lens": 6765,
  "\u0120\u00d0\u00b7\u00d0\u00bd\u00d0\u00b0": 6766,
  "\u0120Both": 6767,
  "\u0120\u00ec\u00b2": 6768,
  "\u0120sustain": 6769,
  "\u0120argument": 6770,
  "\u0120factors": 6771,
  "\u0120automatically": 6772,
  "\u0120fruit": 6773,
  "\u0120liber": 6774,
  "\u0120ale": 6775,
  "\u0120Press": 6776,
  "\u0120Ba": 6777,
  "\u0120\u00d0\u00b3\u00d0\u00be": 6778,
  "\u0120hundreds": 6779,
  "that": 6780,
  "\u0120Rich": 6781,
  "\u0120recipe": 6782,
  "\u0120IT": 6783,
  "\u00e8\u0129": 6784,
  "\u00e1\u00ba\u00a5": 6785,
  "\u0120describe": 6786,
  "\u0120driver": 6787,
  "\u0120Oct": 6788,
  "\u0120Mat": 6789,
  "\u00d0\u00b4\u00d0\u00b5": 6790,
  "\u0120meal": 6791,
  "\u0120latest": 6792,
  "\u0120therap": 6793,
  "\u0120compare": 6794,
  "\u0120Amazon": 6795,
  "\u0120\u00ec\u00a2\u0122": 6796,
  "\u0120Russia": 6797,
  "\u0120string": 6798,
  "\u0120ka": 6799,
  "\u0120Commun": 6800,
  "\u0120dia": 6801,
  "Is": 6802,
  "\u0120millions": 6803,
  "\u0120corpor": 6804,
  "\u0120correspond": 6805,
  "\u0120fixed": 6806,
  "\u0120Joe": 6807,
  "\u00d9\u0130": 6808,
  "\u0120views": 6809,
  "\u0120river": 6810,
  "\u0120studio": 6811,
  "igger": 6812,
  "\u0120flavor": 6813,
  "\u0120presence": 6814,
  "\u0120units": 6815,
  "\u0120saving": 6816,
  "avour": 6817,
  "\u0120pesso": 6818,
  "orith": 6819,
  "\u0120hers": 6820,
  "\u0120Nat": 6821,
  "asion": 6822,
  "\u0120Frank": 6823,
  "\u00d0\u00be\u00d1\u012a": 6824,
  "\u00c5\u0124y": 6825,
  "\u00ed\u0126": 6826,
  "\u0120einem": 6827,
  "\u0120functions": 6828,
  "uman": 6829,
  "\u0120north": 6830,
  "\u0120\u00ec\u0142\u0126": 6831,
  "\u0120horse": 6832,
  "vid": 6833,
  "\u0120pleasure": 6834,
  "\u00d0\u00b0\u00d1\u012a": 6835,
  "\u00c3\u00a9es": 6836,
  "inda": 6837,
  "\u0120tail": 6838,
  "\u0120explore": 6839,
  "ST": 6840,
  "\u0120commercial": 6841,
  "\u0120During": 6842,
  "arl": 6843,
  "]:": 6844,
  "fit": 6845,
  "\u0120rates": 6846,
  "\u00e6\u00b3": 6847,
  "MUSIC": 6848,
  "\u0120housing": 6849,
  "\u0120einer": 6850,
  "\u0120situations": 6851,
  "\u00e6\u012d": 6852,
  "\u0120decre": 6853,
  "\u0120appropriate": 6854,
  "\u00d0\u00b5\u00d0\u00bd\u00d0\u00bd\u00d0\u00be": 6855,
  "%.": 6856,
  "\u0120bac": 6857,
  "\u0120wat": 6858,
  "ensity": 6859,
  "\u00c3\u00a4h": 6860,
  "known": 6861,
  "itz": 6862,
  "\u0120emotional": 6863,
  "ervation": 6864,
  "\u0120blind": 6865,
  "16": 6866,
  "\u00ed\u0125": 6867,
  "\u00e5\u00a4\u00a7\u00e5\u00ae\u00b6": 6868,
  "\u0120joined": 6869,
  "\u0120located": 6870,
  "\u0120\u00d1\u0123\u00d0\u00bc": 6871,
  "adas": 6872,
  "berg": 6873,
  "\u0120dess": 6874,
  "\u0120dear": 6875,
  "eden": 6876,
  "cos": 6877,
  "\u0120adopt": 6878,
  "100": 6879,
  "owe": 6880,
  "\u0120Check": 6881,
  "ismo": 6882,
  "\u0120simpl": 6883,
  "\u0120angry": 6884,
  "\u0120\u00d0\u00bc\u00d0\u00b5\u00d0\u00bd\u00d1\u0131": 6885,
  "\u0120Cam": 6886,
  "\u0120pad": 6887,
  "\u0120attend": 6888,
  "\u0120sample": 6889,
  "\u00e6\u0139\u00a5": 6890,
  "\u0120\u00ec\u013d": 6891,
  "\u0120IN": 6892,
  "ulous": 6893,
  "\u0120Sar": 6894,
  "\u0120Show": 6895,
  "\u0120infrastructure": 6896,
  "\u0120August": 6897,
  "\u0120lesson": 6898,
  "\u0120niet": 6899,
  "\u00e6\u0130": 6900,
  "\u0120foi": 6901,
  "\u0120broke": 6902,
  "tr": 6903,
  "\u00e7\u0137": 6904,
  "\u012045": 6905,
  "\u0120gew": 6906,
  "\u00d1\u0125\u00d0\u00bf": 6907,
  "ati": 6908,
  "\u0120maintain": 6909,
  "\u0120artists": 6910,
  "inger": 6911,
  "\u00e6\u013f\u00a5": 6912,
  "erved": 6913,
  "IA": 6914,
  "\u0120equals": 6915,
  "\u0120operation": 6916,
  "illy": 6917,
  "\u0120\u00eb\u0124\u00b4": 6918,
  "\u0120crowd": 6919,
  "\u0120internal": 6920,
  "\u0120tests": 6921,
  "\u0120Rock": 6922,
  "\u0120Cons": 6923,
  "\u0120\u00eb\u0126\u012a\u00eb\u00ac\u00b4": 6924,
  "war": 6925,
  "\u0120sou": 6926,
  "\u0120chart": 6927,
  "\u0120June": 6928,
  "\u0120April": 6929,
  "gent": 6930,
  "\u0120vent": 6931,
  "\u0120quand": 6932,
  "\u0120Korean": 6933,
  "imo": 6934,
  "\u00e7\u012b": 6935,
  "iders": 6936,
  "\u0120mountain": 6937,
  "\u00d1\u0123\u00d1\u0124\u00d0\u00b0\u00d0\u00b2": 6938,
  "\u00e6\u013e\u012a": 6939,
  "ijk": 6940,
  "\u0120discovered": 6941,
  "\u0120Sund": 6942,
  "\u0120Sil": 6943,
  "\u0120solo": 6944,
  "\u00c2\u00b4": 6945,
  "\u0120schol": 6946,
  "\u0120Each": 6947,
  "\u00e7\u00b5": 6948,
  "\u0120bare": 6949,
  "\u0120\u00ed\u012e": 6950,
  "\u0120v\u00c3\u0143de": 6951,
  "\u0120ingredients": 6952,
  "\u0120Its": 6953,
  "\u013f\u00bc\u00ea\u00b3\u0142": 6954,
  "\u0120\u00ec\u012c": 6955,
  "\u00cf\u012f": 6956,
  "\u0120Lee": 6957,
  "\u0120scary": 6958,
  "\u0120princip": 6959,
  "\u0120spiritual": 6960,
  "\u00ec\u0127": 6961,
  "\u0120Hold": 6962,
  "\u00e6\u00b2\u0134\u00e6\u013e\u012b": 6963,
  "\u0120define": 6964,
  "\u0120Les": 6965,
  "\u0120Nor": 6966,
  "\u0120End": 6967,
  "\u0120blog": 6968,
  "\u0120Green": 6969,
  "\u00d0\u00b0\u00d0\u00b5\u00d1\u0124\u00d1\u0123\u00d1\u0131": 6970,
  "part": 6971,
  "eles": 6972,
  "\u00e4\u00ba\u012d": 6973,
  "\u0120Under": 6974,
  "\u0120parte": 6975,
  "\u012035": 6976,
  "\u0120sector": 6977,
  "\u0120Sept": 6978,
  "\u0120auth": 6979,
  "\u00e0\u00ae\u00ae": 6980,
  "omin": 6981,
  "\u0120clients": 6982,
  "\u0120ci": 6983,
  "\u0120Friday": 6984,
  "eras": 6985,
  "\u0120twe": 6986,
  "ulated": 6987,
  "\u0120cultural": 6988,
  "\u0120\u00d1\u0123\u00d0\u00b2\u00d0\u00be": 6989,
  "\u0120\u00eb\u012f\u0136": 6990,
  "\u0120\u00c3\u00ba": 6991,
  "\u0120parce": 6992,
  "\u00e0\u00ae\u00b2": 6993,
  "\u0120tradition": 6994,
  "\u0120judge": 6995,
  "\u0120General": 6996,
  "\u0120determine": 6997,
  "\u0120Isn": 6998,
  "\u0120PL": 6999,
  "neath": 7000,
  "\u0120matters": 7001,
  "\u00ed\u0137\u00b4\u00ec": 7002,
  "!]": 7003,
  "\u00d0\u00b0\u00d1\u0127": 7004,
  "\u0120pool": 7005,
  "\u0120variable": 7006,
  "\u0120vaccine": 7007,
  "\u0120caused": 7008,
  "\u0120west": 7009,
  "\u0120Yep": 7010,
  "fast": 7011,
  "\u0120philos": 7012,
  "hora": 7013,
  "\u0120continued": 7014,
  "\u0120unfortunately": 7015,
  "\u00e3\u0123\u012f": 7016,
  "\u00e6\u0137": 7017,
  "\u0120flight": 7018,
  "\u0120wrap": 7019,
  "\u0120huh": 7020,
  "\u0120Absolutely": 7021,
  "\u0120pink": 7022,
  "\u0120remains": 7023,
  "\u0120n\u00c3\u00a9": 7024,
  "\u0120fle": 7025,
  "\u0120Sol": 7026,
  "\u0120losing": 7027,
  "\u0120algorith": 7028,
  "\u0120requires": 7029,
  "\u0120foundation": 7030,
  "\u0120Bur": 7031,
  "\u0120profession": 7032,
  "\u0120Mid": 7033,
  "\u0120\u00eb\u0143\u0132": 7034,
  "can": 7035,
  "\u0120Mil": 7036,
  "\u0120younger": 7037,
  "\u0120appears": 7038,
  "term": 7039,
  "\u00ed\u0137\u013a\u00ea\u00b3\u0142": 7040,
  "acle": 7041,
  "\u0120London": 7042,
  "\u0120engineering": 7043,
  "\u00e0\u00b8\u00a2": 7044,
  "\u0120advent": 7045,
  "\u00ec\u0126\u00b8\u00ec\u013c\u0136": 7046,
  "\u0120\u00ea\u00b8\u00b0": 7047,
  "\u0120Maj": 7048,
  "\u00d1\u0122\u00d0\u00b5\u00d0\u00bc": 7049,
  "ingu": 7050,
  "\u0120UK": 7051,
  "uro": 7052,
  "spe": 7053,
  "\u0120tent": 7054,
  "\u0120reported": 7055,
  "\u0120AL": 7056,
  "Hey": 7057,
  "\u0120\u00eb\u00a7\u0132": 7058,
  "\u0120dent": 7059,
  "\u0120Australia": 7060,
  "\u0120January": 7061,
  "\u00b3\u00b4": 7062,
  "agues": 7063,
  "arsh": 7064,
  "rig": 7065,
  "\u0120tiene": 7066,
  "\u00e0\u00b8\u00a3": 7067,
  "\u00ce\u00ae": 7068,
  "\u0120machen": 7069,
  "unte": 7070,
  "\u00d1\u0125\u00d1\u0123": 7071,
  "\u0120electr": 7072,
  "\u0120tutorial": 7073,
  "\u0120placed": 7074,
  "\u0120\u00ec\u013f\u00b4\u00ea\u00b1\u00b0": 7075,
  "\u0120Council": 7076,
  "\u00ed\u0138\u012a": 7077,
  "\u00b0\u00eb\u00a6\u00ac": 7078,
  "ahren": 7079,
  "\u0120\u00ea\u00b7\u00b8\u00eb\u0140\u013a": 7080,
  "\u0120prove": 7081,
  "fol": 7082,
  "\u0120quer": 7083,
  "\u0120cheap": 7084,
  "\u0120Father": 7085,
  "\u0120Power": 7086,
  "\u0135\u013e": 7087,
  "\u0120purs": 7088,
  "\u0120esp": 7089,
  "\u0120Bre": 7090,
  "\u00ea\u00b8\u00b0\u00eb": 7091,
  "omas": 7092,
  "\u00e6\u0125\u00b3": 7093,
  "\u00d0\u00b8\u00d0\u00bb\u00d1\u012e": 7094,
  "\u0120geht": 7095,
  "oster": 7096,
  "\u00ea\u00b3\u00bc": 7097,
  "\u0120files": 7098,
  "\u0120\u00d0\u00a7": 7099,
  "bell": 7100,
  "\u0120whom": 7101,
  "\u0120\u00eb\u013a": 7102,
  "\u0120excellent": 7103,
  "\u0120datab": 7104,
  "\u0120g\u00c3\u00b6": 7105,
  "\u0120\u00ec\u00a7\u0126\u00ec\u00a7\u013e": 7106,
  "\u0120belief": 7107,
  "jet": 7108,
  "\u0120jack": 7109,
  "\u0120swim": 7110,
  "rial": 7111,
  "umin": 7112,
  "auc": 7113,
  "\u0120soll": 7114,
  "\u0120essential": 7115,
  "\u00ed\u0137\u013a\u00eb\u012c\u0136": 7116,
  "\u0120evol": 7117,
  "chaft": 7118,
  "aine": 7119,
  "thlet": 7120,
  "\u0120incor": 7121,
  "\u0120reports": 7122,
  "\u0120definition": 7123,
  "kel": 7124,
  "\u0120circum": 7125,
  "\u0120produced": 7126,
  "\u0120\u00d7\u013d": 7127,
  "antic": 7128,
  "net": 7129,
  "\u0120award": 7130,
  "\u0120durch": 7131,
  "\u0120transp": 7132,
  "\u0120male": 7133,
  "\u00a6\u00ac\u00eb": 7134,
  "\u0120moon": 7135,
  "\u0120George": 7136,
  "\u0120flying": 7137,
  "i\u00c3\u00b3": 7138,
  "\u0120sources": 7139,
  "\u0120plenty": 7140,
  "\u0120Democr": 7141,
  "RO": 7142,
  "\u012000": 7143,
  "\u0120secure": 7144,
  "\u0120Bir": 7145,
  "rain": 7146,
  "\u0120zur": 7147,
  "\u0120efficient": 7148,
  "\u0120repeat": 7149,
  "\u0120methods": 7150,
  "\u0120calm": 7151,
  "\u0120discussed": 7152,
  "\u0120\u00ec\u0140\u012a\u00eb\u012c\u0136": 7153,
  "\u0120server": 7154,
  "anie": 7155,
  "\u0120Instead": 7156,
  "\u0120ideal": 7157,
  "\u0120conven": 7158,
  "\u0120hoping": 7159,
  "\u0120Tor": 7160,
  "\u0120depth": 7161,
  "\u0120heaven": 7162,
  "ENCE": 7163,
  "\u0120habit": 7164,
  "grad": 7165,
  "\u0120flag": 7166,
  "\u0120ine": 7167,
  "\u0120kh": 7168,
  "\u0120LI": 7169,
  "\u0120facing": 7170,
  "\u0120AU": 7171,
  "\u0120Tim": 7172,
  "\u0120gem": 7173,
  "\u0120Jul": 7174,
  "\u0120ela": 7175,
  "izza": 7176,
  "\u0120fellow": 7177,
  "\u0120quel": 7178,
  "\u0120spoke": 7179,
  "\u0120citizens": 7180,
  "uge": 7181,
  "\u00e9\u0125\u00bd": 7182,
  "\u0120pages": 7183,
  "\u0120fasc": 7184,
  "\u0120religious": 7185,
  "aten": 7186,
  "\u0120chapter": 7187,
  "\u0120Val": 7188,
  "\u0120consult": 7189,
  "\u0120Mill": 7190,
  "gl": 7191,
  "oper": 7192,
  "\u0120infin": 7193,
  "\u0120marriage": 7194,
  "\u0120medicine": 7195,
  "\u0120\u00d0\u00b4\u00d0\u00b2": 7196,
  "\u0120dogs": 7197,
  "\u0120instrument": 7198,
  "\u0120Exact": 7199,
  "\u00c3\u00a1n": 7200,
  "\u01202021": 7201,
  "\u0120fer": 7202,
  "\u0120wealth": 7203,
  "\u0120grade": 7204,
  "\u00d1\u012d\u00d1\u0127": 7205,
  "\u0120crime": 7206,
  "\u0120thread": 7207,
  "\u0120essa": 7208,
  "\u0120wine": 7209,
  "cohol": 7210,
  "pha": 7211,
  "\u00e0\u00b8\u0129": 7212,
  "ogue": 7213,
  "\u0120insurance": 7214,
  "arrator": 7215,
  "\u0120September": 7216,
  "\u0120vid": 7217,
  "\u0120Spirit": 7218,
  "\u0120gest": 7219,
  "\u0120Russian": 7220,
  "\u0120properties": 7221,
  "\u0120article": 7222,
  "\u0120underneath": 7223,
  "yer": 7224,
  "\u0120joint": 7225,
  "\u0120relatively": 7226,
  "\u0120inch": 7227,
  "\u0120despite": 7228,
  "\u0120Gree": 7229,
  "\u0120classic": 7230,
  "\u0120supporting": 7231,
  "\u0120instruct": 7232,
  "lusive": 7233,
  "\u0120diagn": 7234,
  "\u00e6\u012c": 7235,
  "\u0120administration": 7236,
  "\u00d0\u00b0\u00d0\u00b1\u00d0\u00be\u00d1\u0124": 7237,
  "\u0120Open": 7238,
  "\u00e6\u012b\u0122\u00e4\u00bb\u00a5": 7239,
  "\u0120\u00d0\u00bf\u00d0\u00be\u00d0\u00ba": 7240,
  "\u0120dollar": 7241,
  "\u0120consequ": 7242,
  "ober": 7243,
  "\u0120Germany": 7244,
  "\u0120terr": 7245,
  "\u0120QU": 7246,
  "\u0120\u00d0\u0135": 7247,
  "\u00e7\u00be": 7248,
  "\u0120stronger": 7249,
  "\u00c9\u013b": 7250,
  "\u0120\u00d9\u012c": 7251,
  "\u0120iPhone": 7252,
  "\u0120fabric": 7253,
  "\u00c3\u00bch": 7254,
  "\u0120enem": 7255,
  "\u00e6\u00af": 7256,
  "\u0120subt": 7257,
  "EE": 7258,
  "onde": 7259,
  "\u0120crew": 7260,
  "\u0120removed": 7261,
  "\u0120lady": 7262,
  "\u0120potentially": 7263,
  "\u0120\u00d0\u013f\u00d0\u00be": 7264,
  "yal": 7265,
  "\u0120sympt": 7266,
  "\u0120army": 7267,
  "\u0120introduced": 7268,
  "tes": 7269,
  "\u0120aspects": 7270,
  "14": 7271,
  "\u0120Lou": 7272,
  "\u0120)": 7273,
  "\u0120deploy": 7274,
  "pet": 7275,
  "\u0120han": 7276,
  "\u0120Watch": 7277,
  "\u0120weapons": 7278,
  "\u0120phen": 7279,
  "\u0120register": 7280,
  "\u0120einfach": 7281,
  "\u0120sport": 7282,
  "\u0120bridge": 7283,
  "\u0120inner": 7284,
  "\u0120minimum": 7285,
  "\u0120witness": 7286,
  "\u0120eso": 7287,
  "\u0120village": 7288,
  "\u0120owner": 7289,
  "\u00a6\u00ac\u00ea\u00b3\u0142": 7290,
  "\u0120scream": 7291,
  "iled": 7292,
  "\u0120pitch": 7293,
  "bru": 7294,
  "\u0120advance": 7295,
  "\u00e4\u00b8\u012f\u00e6\u013a\u00af": 7296,
  "\u0120suppose": 7297,
  "\u0120Att": 7298,
  "\u00d0\u00b5\u00d1\u0124\u00d1\u0123\u00d1\u0131": 7299,
  "\u0120differences": 7300,
  "aked": 7301,
  "\u0120interpret": 7302,
  "\u00c3\u00a6": 7303,
  "iendo": 7304,
  "\u0120absol": 7305,
  "\u0120\u00d0\u00b1\u00d1\u0125\u00d0\u00b4\u00d0\u00b5\u00d1\u0124": 7306,
  "\u0120\u00eb\u00b2": 7307,
  "\u0120trial": 7308,
  "\u0120thinks": 7309,
  "lying": 7310,
  "ception": 7311,
  "\u0120African": 7312,
  "\u0120chemical": 7313,
  "\u0120tape": 7314,
  "\u0120conversations": 7315,
  "\u0120distribution": 7316,
  "ti": 7317,
  "\u0120AI": 7318,
  "\u0120flash": 7319,
  "\u0120understood": 7320,
  "\u0120Government": 7321,
  "\u00e5\u00b0\u0131": 7322,
  "!?": 7323,
  "\u0120Sk": 7324,
  "\u00ea\u00b1\u00b0\u00eb": 7325,
  "rier": 7326,
  "TS": 7327,
  "\u0120According": 7328,
  "\u00d1\u0130\u00d1\u0124": 7329,
  "\u0120spons": 7330,
  "\u00d1\u0124\u00d0\u00be\u00d0\u00b1\u00d1\u012d": 7331,
  "\u0120valu": 7332,
  "erem": 7333,
  "ichtig": 7334,
  "\u0120resistance": 7335,
  "\u0120Gal": 7336,
  "gery": 7337,
  "\u0120begins": 7338,
  "\u0120advanced": 7339,
  "\u0120relevant": 7340,
  "\u0120politics": 7341,
  "\u0120Fam": 7342,
  "\u0120\u00c3\u00a7ok": 7343,
  "\u0120Never": 7344,
  "illing": 7345,
  "\u0120football": 7346,
  "\u00d0\u00b8\u00d0\u00b8": 7347,
  "\u0120ID": 7348,
  "\u0120Africa": 7349,
  "\u0120fingers": 7350,
  "\u0120\u00d0\u00b1\u00d0\u00be\u00d0\u00bb\u00d1\u012e": 7351,
  "\u0120\u00c3\u00a1": 7352,
  "\u0120clip": 7353,
  "\u0120Lat": 7354,
  "\u00e3\u0124\u0126": 7355,
  "\u0120\u00ec\u00a7\u0122\u00ea\u00b8\u012a": 7356,
  "esse": 7357,
  "\u0120voor": 7358,
  "\u0120aside": 7359,
  "\u00e6\u0140": 7360,
  "\u0120toward": 7361,
  "\u0120bat": 7362,
  "\u0120valid": 7363,
  "\u0120Mens": 7364,
  "\u0120completed": 7365,
  "\u00c4\u00b1\u00c4\u0141": 7366,
  "\u0120podcast": 7367,
  "\u0120Bon": 7368,
  "\u00db\u0134": 7369,
  "\u0120July": 7370,
  "ila": 7371,
  "\u0120package": 7372,
  "\u0120pulled": 7373,
  "char": 7374,
  "\u0120Mel": 7375,
  "ois": 7376,
  "\u0120south": 7377,
  "\u0120\u00eb\u0136": 7378,
  "\u0120importance": 7379,
  "\u0120pushing": 7380,
  "\u0120isol": 7381,
  "\u0120stands": 7382,
  "cill": 7383,
  "\u00e4\u00bc": 7384,
  "\u0120\u00f0\u0141": 7385,
  "ori": 7386,
  "\u00ea\u00b0\u0123": 7387,
  "\u0120homes": 7388,
  "\u0120concerns": 7389,
  "\u0120biz": 7390,
  "\u00e5\u00bd": 7391,
  "bie": 7392,
  "\u0120bis": 7393,
  "\u0120gear": 7394,
  "\u0120MS": 7395,
  "\u0120hun": 7396,
  "\u0120Matt": 7397,
  "\u00e1\u00ba\u00a3": 7398,
  "sey": 7399,
  "\u0120Secret": 7400,
  "\u0120odd": 7401,
  "\u0120Max": 7402,
  "olly": 7403,
  "ford": 7404,
  "\u0120SH": 7405,
  "\u0120replace": 7406,
  "\u0120navig": 7407,
  "\u0120ini": 7408,
  "\u00d0\u00b8\u00d1\u0131": 7409,
  "\u0120giant": 7410,
  "\u0120mand": 7411,
  "\u0120Happ": 7412,
  "TION": 7413,
  "gun": 7414,
  "iamo": 7415,
  "\u00ec\u0140\u0127\u00eb\u012d\u012a\u00eb\u012d\u00a4": 7416,
  "\u0120gap": 7417,
  "\u0120\u00c3\u00aatre": 7418,
  "\u0120classroom": 7419,
  "\u0120hyp": 7420,
  "aki": 7421,
  "\u00e8\u00ae": 7422,
  "isters": 7423,
  "acks": 7424,
  "\u0120\u00d1\u0123\u00d0\u00be": 7425,
  "\u0120bug": 7426,
  "\u0120grav": 7427,
  "amin": 7428,
  "\u0120everyday": 7429,
  "\u0120\u00ec\u00a1\u00b0": 7430,
  "\u0120garden": 7431,
  "cember": 7432,
  "\u0120esto": 7433,
  "\u00e5\u0139\u0130": 7434,
  "\u00d8\u00ac": 7435,
  "\u0141\u00b0": 7436,
  "\u00e5\u0123": 7437,
  "\u0120rom": 7438,
  "\u0120\u00ec\u0142\u013e\u00ea\u00b0\u0122": 7439,
  "\u0120falling": 7440,
  "\u0120fault": 7441,
  "elly": 7442,
  "\u0120chest": 7443,
  "\u0120\u00d0\u00bb\u00d0\u00b8": 7444,
  "\u0120potato": 7445,
  "\u0120buildings": 7446,
  "\u0120operating": 7447,
  "\u0120pare": 7448,
  "wr": 7449,
  "Don": 7450,
  "\u0120Four": 7451,
  "\u0120vul": 7452,
  "\u0120l\u00c3\u00a1": 7453,
  "\u0120frust": 7454,
  "\u0120Dann": 7455,
  "oles": 7456,
  "nya": 7457,
  "\u0120\u00ec\u00b6": 7458,
  "\u0120\u00d1\u0122\u00d0\u00b0\u00d1\u0123": 7459,
  "\u00d7\u013d": 7460,
  "\u0120a\u00c3\u0143": 7461,
  "word": 7462,
  "\u0120weapon": 7463,
  "\u0120obt": 7464,
  "\u0120Fall": 7465,
  "\u0120Steve": 7466,
  "\u0120mixed": 7467,
  "\u0120pode": 7468,
  "\u0120AS": 7469,
  "\u0120Leg": 7470,
  "\u0120desc": 7471,
  "\u0120split": 7472,
  "\u0120emergency": 7473,
  "\u0120Sing": 7474,
  "\u0120profit": 7475,
  "\u0120typical": 7476,
  "\u0120Donc": 7477,
  "\u0120announce": 7478,
  "\u0120Tex": 7479,
  "\u0120sacr": 7480,
  "ternal": 7481,
  "\u0120committee": 7482,
  "igo": 7483,
  "\u0120diam": 7484,
  "phas": 7485,
  "\u0120defe": 7486,
  "\u0120Profess": 7487,
  "\u0120decl": 7488,
  "\u00d1\u0125\u00d1\u0122": 7489,
  "22": 7490,
  "olf": 7491,
  "\u0120Mond": 7492,
  "uy": 7493,
  "\u0120ay": 7494,
  "\u0120lem": 7495,
  "\u0120lovely": 7496,
  "\u0120Could": 7497,
  "\u0120guar": 7498,
  "HH": 7499,
  "\u0120carefully": 7500,
  "\u0120Listen": 7501,
  "\u0120\u00d0\u00ba\u00d1\u0122": 7502,
  "\u0120youth": 7503,
  "\u0120Therefore": 7504,
  "\u0120dreams": 7505,
  "\u0120Jeff": 7506,
  "?]": 7507,
  "\u0120\u00eb\u012a": 7508,
  "DA": 7509,
  "\u0120bodies": 7510,
  "aux": 7511,
  "\u0120techniques": 7512,
  "\u0120mechanism": 7513,
  "\u00d7\u0135": 7514,
  "\u0120\u00d0\u00be\u00d0\u00bd\u00d0\u00b8": 7515,
  "\u0120desire": 7516,
  "\u00c3\u00ae": 7517,
  "\u0120Vo": 7518,
  "ques": 7519,
  "\u0120\u00d1\u0125\u00d0\u00b6\u00d0\u00b5": 7520,
  "\u0120Whoa": 7521,
  "\u0120Game": 7522,
  "\u0120hal": 7523,
  "anish": 7524,
  "\u0120practices": 7525,
  "500": 7526,
  "\u0120sorts": 7527,
  "ups": 7528,
  "ateful": 7529,
  "\u0120herself": 7530,
  "\u0120guitar": 7531,
  "\u0120propos": 7532,
  "\u0120sites": 7533,
  "\u0120beach": 7534,
  "\u0120\u00d7\u00a2": 7535,
  "\u00e7\u00ac\u00ac": 7536,
  "\u00d0\u00bd\u00d1\u0125": 7537,
  "\u0120dram": 7538,
  "\u0120Nove": 7539,
  "VE": 7540,
  "rant": 7541,
  "\u0120plot": 7542,
  "\u0120\u00ec\u0139\u00ac\u00ea\u00b8\u00b0": 7543,
  "\u0120Ca": 7544,
  "\u0120established": 7545,
  "\u01202015": 7546,
  "\u0120inspired": 7547,
  "\u0120announced": 7548,
  "\u00e4\u00b8\u00aa": 7549,
  "\u0120\u00d1\u0124\u00d1\u0122": 7550,
  "\u012026": 7551,
  "\u0120voy": 7552,
  "\u0120tech": 7553,
  "\u00ec\u0142\u0123": 7554,
  "\u0120processes": 7555,
  "onto": 7556,
  "\u0120Pan": 7557,
  "\u0120rapid": 7558,
  "istan": 7559,
  "\u0120197": 7560,
  "\u0120religion": 7561,
  "\u012028": 7562,
  "\u0120smile": 7563,
  "\u0120bab": 7564,
  "\u0120\u00da\u00a9": 7565,
  "\u0120Vir": 7566,
  "\u0120schedule": 7567,
  "\u0120execut": 7568,
  "\u0120pron": 7569,
  "\u00d1\u012f": 7570,
  "\u0120\u00d0\u013f\u00d1\u0125": 7571,
  "music": 7572,
  "\u00ec\u013d\u0132": 7573,
  "\u0120gan": 7574,
  "\u00ec\u012d\u0142": 7575,
  "\u0120default": 7576,
  "\u0120bem": 7577,
  "\u00d9\u012b": 7578,
  "\u0120forced": 7579,
  "\u0120Obviously": 7580,
  "\u0120stone": 7581,
  "\u0120tie": 7582,
  "\u0120drinking": 7583,
  "\u0120served": 7584,
  "Cause": 7585,
  "\u0120conference": 7586,
  "\u0120Exactly": 7587,
  "\u00e3\u0125\u012a": 7588,
  "\u0142\u013e": 7589,
  "\u00ec\u013b\u0122": 7590,
  "\u0120Ra": 7591,
  "\u0120fake": 7592,
  "\u0120diff": 7593,
  "\u00e3\u0123\u00a9": 7594,
  "\u0120challenging": 7595,
  "\u0120\u00ec\u00a4\u0133": 7596,
  "\u00cf\u0129": 7597,
  "\u00e4\u00bb\u0122\u00e9\u00ba\u00bc": 7598,
  "\u0120intelligence": 7599,
  "rete": 7600,
  "\u0120studying": 7601,
  "\u0120appoint": 7602,
  "\u0120tan": 7603,
  "\u0120\u00d0\u00b8\u00d0\u00bc": 7604,
  "\u0120curve": 7605,
  "\u0120Team": 7606,
  "\u0120Az": 7607,
  "\u0120\u00d0\u00b7\u00d0\u00b4": 7608,
  "\u0120Music": 7609,
  "field": 7610,
  "iration": 7611,
  "\u0120failed": 7612,
  "\u0120novel": 7613,
  "\u0120differently": 7614,
  "\u0120escape": 7615,
  "\u0120Yo": 7616,
  "\u0120October": 7617,
  "\u00c4\u00b1yor": 7618,
  "\u0120described": 7619,
  "\u0120convert": 7620,
  "acement": 7621,
  "\u0120hotel": 7622,
  "isation": 7623,
  "\u0120suis": 7624,
  "\u00e3\u0123\u0133": 7625,
  "\u00e5\u0143\u0132": 7626,
  "\u00e6\u0122\u0130": 7627,
  "\u0120walked": 7628,
  "200": 7629,
  "\u0120neighborhood": 7630,
  "isp": 7631,
  "\u0120Los": 7632,
  "\u0120hidden": 7633,
  "\u012027": 7634,
  "\u00d0\u00bb\u00d0\u00b5": 7635,
  "\u0120phr": 7636,
  "\u0120Island": 7637,
  "\u0120Street": 7638,
  "enda": 7639,
  "hips": 7640,
  "osure": 7641,
  "\u0120defined": 7642,
  "\u00e0\u00b8\u00a7": 7643,
  "\u0120vida": 7644,
  "\u0120label": 7645,
  "\u0120Everybody": 7646,
  "\u0120joke": 7647,
  "iao": 7648,
  "\u00d8\u00a7\u00d9\u0128": 7649,
  "\u0120athlet": 7650,
  "...\"": 7651,
  "\u0120Fire": 7652,
  "Do": 7653,
  "\u0120defense": 7654,
  "\u0120entertain": 7655,
  "\u00c3\u00a1t": 7656,
  "\u0120policies": 7657,
  "\u0120alcohol": 7658,
  "\u0120Engine": 7659,
  "\u0120gal": 7660,
  "\u0120Jud": 7661,
  "\u0120volunte": 7662,
  "icks": 7663,
  "eta": 7664,
  "agt": 7665,
  "\u0120\u00d7\u0137": 7666,
  "\u0120m\u00c3\u00b6": 7667,
  "13": 7668,
  "\u0120encoun": 7669,
  "\u0120eh": 7670,
  "\u0120orange": 7671,
  "\u0120absor": 7672,
  "\u0120spaces": 7673,
  "\u0120November": 7674,
  "\u00ea\u00b5\u00ac": 7675,
  "iat": 7676,
  "\u0120tam": 7677,
  "cknow": 7678,
  "\u0120storm": 7679,
  "\u0120Director": 7680,
  "\u0120pregn": 7681,
  "\u0120\u00ec\u013f\u00bc": 7682,
  "\u0120\u00d0\u00be\u00d0\u00bf": 7683,
  "\u0120resource": 7684,
  "\u0120bard": 7685,
  "new": 7686,
  "\u0120December": 7687,
  "uits": 7688,
  "\u0120weil": 7689,
  "\u0120construct": 7690,
  "si": 7691,
  "nic": 7692,
  "\u0120flour": 7693,
  "\u0120restrict": 7694,
  "\u00c3\u00bct": 7695,
  "\u0120entirely": 7696,
  "\u0120breaking": 7697,
  "entlich": 7698,
  "\u0120twenty": 7699,
  "\u0120causes": 7700,
  "\u0120elev": 7701,
  "\u0120Spr": 7702,
  "\u0120Internet": 7703,
  "\u0120kiss": 7704,
  "\u0120operations": 7705,
  "szy": 7706,
  "\u0120\u00eb\u012c": 7707,
  "\u0120scientists": 7708,
  "\u0120grown": 7709,
  "\u0120owners": 7710,
  "outs": 7711,
  "\u0120courses": 7712,
  "\u0120usual": 7713,
  "\u0120inn": 7714,
  "\u0120transm": 7715,
  "\u00c3\u00b1o": 7716,
  "\u0120nuest": 7717,
  "\u00d0\u00ba\u00d0\u00be\u00d0\u00b2": 7718,
  "\u0120category": 7719,
  "\u0120Life": 7720,
  "\u0120Plus": 7721,
  "\u0120atmos": 7722,
  "while": 7723,
  "\u0120records": 7724,
  "\u0120de\u00c4\u0141": 7725,
  "\u00eb\u012d\u00a4\u00ea\u00b3\u0142": 7726,
  "\u0120\u00ec\u0124\u00ac\u00eb\u0140": 7727,
  "\u0120requirements": 7728,
  "inn": 7729,
  "\u0120immig": 7730,
  "\u0120deeper": 7731,
  "\u00e7\u00b4": 7732,
  "\u0120apps": 7733,
  "\u0120colleagues": 7734,
  "\u00c5\u00bcy": 7735,
  "\u0120offers": 7736,
  "\u0120t\u00c3\u00a1": 7737,
  "\u0120column": 7738,
  "laud": 7739,
  "IR": 7740,
  "\u0120Ms": 7741,
  "\u0120exchange": 7742,
  "las": 7743,
  "\u0120Law": 7744,
  "\u0120Jon": 7745,
  "isse": 7746,
  "rogen": 7747,
  "\u0120moi": 7748,
  "\u00d7\u0139": 7749,
  "\u0120sending": 7750,
  "\u0120hello": 7751,
  "\u00d0\u00b5\u00d0\u00b5": 7752,
  "\u00c5\u013d\u00c4\u0129": 7753,
  "\u0120succeed": 7754,
  "\u0120suffering": 7755,
  "\u0120advert": 7756,
  "\u0120\u00ec\u00a3\u00bc": 7757,
  "\u00e7\u0141\u00a5\u00e9\u0123\u0135": 7758,
  "\u0120reco": 7759,
  "\u00c4\u00b1n\u00c4\u00b1": 7760,
  "\u0120\u00d0\u00ba\u00d0\u00be\u00d0\u00bc": 7761,
  "alley": 7762,
  "\u0120failure": 7763,
  "iej": 7764,
  "\u0120\u00eb\u0137\u012e": 7765,
  "\u0120drugs": 7766,
  "\u0120cuando": 7767,
  "\u0120\u00ec\u0138\u00b4\u00eb\u0138": 7768,
  "\u0120About": 7769,
  "\u0120quando": 7770,
  "90": 7771,
  "\u0120Fed": 7772,
  "17": 7773,
  "Sh": 7774,
  "inho": 7775,
  "\u0120Sunday": 7776,
  "\u0120Phil": 7777,
  "\u0120academic": 7778,
  "\u0120Inc": 7779,
  "\u0120mainten": 7780,
  "\u00e5\u0129\u00ba": 7781,
  "\u0120reward": 7782,
  "erd": 7783,
  "\u0120committed": 7784,
  "\u00ec\u012c\u00a4": 7785,
  "\u00d0\u00b3\u00d1\u0122": 7786,
  "\u0120standards": 7787,
  "\u0120kal": 7788,
  "\u0120intention": 7789,
  "\u0120Zh": 7790,
  "\u0120acknow": 7791,
  "\u00e4\u00bf": 7792,
  "\u0120===": 7793,
  "ogy": 7794,
  "\u00e5\u00a7": 7795,
  "\u0120films": 7796,
  "isk": 7797,
  "\u0120teeth": 7798,
  "\u0120struggle": 7799,
  "rd": 7800,
  "uen": 7801,
  "\u0120diss": 7802,
  "\u0120Dar": 7803,
  "amy": 7804,
  "\u0120enemies": 7805,
  "\u0120veloc": 7806,
  "\u0120Call": 7807,
  "umbs": 7808,
  "\u00d0\u00b8\u00d1\u0124\u00d0\u00b5\u00d0\u00bb\u00d1\u012e": 7809,
  "\u0120ocean": 7810,
  "\u00c3\u00a9d": 7811,
  "\u00ec\u013c\u00b0": 7812,
  "\u0120trem": 7813,
  "iento": 7814,
  "\u00d0\u00b5\u00d1\u012a\u00d1\u012e": 7815,
  "fficient": 7816,
  "\u0120bottle": 7817,
  "\u0120institution": 7818,
  "esty": 7819,
  "\u0120Han": 7820,
  "hab": 7821,
  "\u00eb\u012c\u013a": 7822,
  "\u0120arrest": 7823,
  "\u00e9\u0124\u0126": 7824,
  "\u0120letters": 7825,
  "ounce": 7826,
  "\u00ed\u012e": 7827,
  "An": 7828,
  "\u0120creates": 7829,
  "\u0120clock": 7830,
  "\u0120debt": 7831,
  "\u0120ancient": 7832,
  "ifications": 7833,
  "gi": 7834,
  "But": 7835,
  "\u0120Tu": 7836,
  "kl": 7837,
  "\u0120border": 7838,
  "\u0120ook": 7839,
  "\u0120Bay": 7840,
  "esta": 7841,
  "\u0120\u00eb\u00b3\u00b4\u00ec": 7842,
  "\u0120wra": 7843,
  "prene": 7844,
  "\u0120\u00ea\u00b2\u012e": 7845,
  "angle": 7846,
  "\u0120believed": 7847,
  "iency": 7848,
  "aka": 7849,
  "\u0120critic": 7850,
  "\u0120bomb": 7851,
  "\u0120ham": 7852,
  "\u0120\u00d0\u013d": 7853,
  "\u00ea\u00b5\u0143": 7854,
  "\u0120Guys": 7855,
  "rosoft": 7856,
  "\u0120crim": 7857,
  "etch": 7858,
  "ARR": 7859,
  "\u0120sight": 7860,
  "\u00d0\u00b8\u00d0\u00bd\u00d0\u00b0": 7861,
  "\u0120ain": 7862,
  "\u00e1\u00bb\u0133": 7863,
  "ische": 7864,
  "\u0120aux": 7865,
  "\u0120numer": 7866,
  "\u0120survive": 7867,
  "All": 7868,
  "BC": 7869,
  "\u0120sz": 7870,
  "\u0141\u00ac\u00eb": 7871,
  "\u0120jam": 7872,
  "\u0120Court": 7873,
  "\u0120alles": 7874,
  "\u0120trigger": 7875,
  "\u00d0\u0140": 7876,
  "\u0120format": 7877,
  "\u0120decades": 7878,
  "\u0120ces": 7879,
  "\u0120signs": 7880,
  "\u0120robot": 7881,
  "\u0120Church": 7882,
  "\u0120az": 7883,
  "\u0120soup": 7884,
  "\u0120Texas": 7885,
  "uten": 7886,
  "\u0120\u00d1\u0129\u00d1\u0124\u00d0\u00be\u00d0\u00b1\u00d1\u012d": 7887,
  "\u0120neighb": 7888,
  "\u0138\u00d7\u0136": 7889,
  "\u0120communicate": 7890,
  "\u00c5\u00a1": 7891,
  "\u0120elimin": 7892,
  "\u0120frequency": 7893,
  "hern": 7894,
  "idos": 7895,
  "\u0120emphas": 7896,
  "\u0120messages": 7897,
  "\u0120gender": 7898,
  "\u0120Wenn": 7899,
  "\u0120\u00d0\u00b2\u00d0\u00be": 7900,
  "\u0120prices": 7901,
  "olo": 7902,
  "\u0120\u00d0\u00bf\u00d0\u00be\u00d0\u00bd": 7903,
  "wing": 7904,
  "\u0120Fil": 7905,
  "\u00d0\u00b0\u00d0\u00b5\u00d0\u00bc": 7906,
  "\u0120Cur": 7907,
  "\u0120false": 7908,
  "\u0120fields": 7909,
  "\u0120s\u00c3\u00a9": 7910,
  "24": 7911,
  "\u0120mac": 7912,
  "u\u00c5\u0141": 7913,
  "\u0120layers": 7914,
  "\u0120advoc": 7915,
  "wan": 7916,
  "\u0120kar": 7917,
  "\u0120\u00c5\u0140": 7918,
  "\u0120decor": 7919,
  "\u0120walls": 7920,
  "oe": 7921,
  "issions": 7922,
  "\u0120resol": 7923,
  "\u00d7\u00a2": 7924,
  "\u0120Carol": 7925,
  "\u0120Vide": 7926,
  "leep": 7927,
  "\u0120YOU": 7928,
  "\u0120flip": 7929,
  "\u0120surgery": 7930,
  "\u0120chop": 7931,
  "UR": 7932,
  ".,": 7933,
  "\u0120agency": 7934,
  "\u0120wanting": 7935,
  "\u0120solar": 7936,
  "\u0120horiz": 7937,
  "\u0120Adam": 7938,
  "\u0120staying": 7939,
  "olic": 7940,
  "\u0120grateful": 7941,
  "\u0120remark": 7942,
  "\u0120technologies": 7943,
  "\u0120protein": 7944,
  "\u00e5\u00bf\u0125": 7945,
  "\u00d0\u00b4\u00d0\u00b5\u00d0\u00bb": 7946,
  "\u0120Mont": 7947,
  "\u0120shoulder": 7948,
  "\u0120za": 7949,
  "rey": 7950,
  "\u0120Ooh": 7951,
  "\u0120sty": 7952,
  "icar": 7953,
  "\u00d0\u00be\u00d1\u0124\u00d1\u0122": 7954,
  "\u0120route": 7955,
  "\u0120Turn": 7956,
  "\u0120bom": 7957,
  "\u0120debate": 7958,
  "\u0120possibility": 7959,
  "\u0120\u00ed\u0137\u00b4\u00ec": 7960,
  "apa": 7961,
  "\u0120invent": 7962,
  "\u00c3\u00bcrlich": 7963,
  "\u0120profile": 7964,
  "\u0120senior": 7965,
  "ppy": 7966,
  "vas": 7967,
  "\u0120mundo": 7968,
  "atever": 7969,
  "\u0120apparently": 7970,
  "ener": 7971,
  "\u00d7\u0132": 7972,
  "\u00e7\u0143": 7973,
  "\u0120precis": 7974,
  "\u0120align": 7975,
  "\u0120knife": 7976,
  "\u0120Robert": 7977,
  "\u00e5\u012d": 7978,
  "\u0120fool": 7979,
  "\u0120invite": 7980,
  "using": 7981,
  "\u0120circumst": 7982,
  "\u0120capture": 7983,
  "\u0120dough": 7984,
  "\u0120Sand": 7985,
  "\u0120seu": 7986,
  "\u0120News": 7987,
  "\u0120bite": 7988,
  "\u0120neut": 7989,
  "wide": 7990,
  "\u0120lecture": 7991,
  "\u0120\u00eb\u013a\u0132": 7992,
  "\u0120originally": 7993,
  "\u0120choices": 7994,
  "\u0120Gar": 7995,
  "\u0120verse": 7996,
  "\u0120lit": 7997,
  "\u0120196": 7998,
  "\u00ed\u0137\u0142": 7999,
  "\u0120measures": 8000,
  "\u00c3\u00a7\u00c3\u00b5es": 8001,
  "water": 8002,
  "rive": 8003,
  "\u0120zijn": 8004,
  "\u00ed\u0123": 8005,
  "\u0120Bus": 8006,
  "\u0120heb": 8007,
  "\u00d0\u00b5\u00d1\u0127": 8008,
  "\u0120Kar": 8009,
  "\u0120N\u00c3\u00a3o": 8010,
  "\u0120killing": 8011,
  "\u00e0\u00ae\u00aa": 8012,
  "\u0120mirror": 8013,
  "mod": 8014,
  "\u0120mol": 8015,
  "\u0120creation": 8016,
  "\u0120estim": 8017,
  "\u0120atmosphere": 8018,
  "\u0120gam": 8019,
  "\u0120tables": 8020,
  "isi": 8021,
  "\u0120Little": 8022,
  "\u0120tas": 8023,
  "\u0120Ele": 8024,
  "\u00c3\u00a9l": 8025,
  "\u0120scenes": 8026,
  "\u0120tone": 8027,
  "\u0120affected": 8028,
  "\u0120AUDI": 8029,
  "\u0120Brown": 8030,
  "If": 8031,
  "\u0120\u00d9\u0129": 8032,
  "\u0120Daniel": 8033,
  "\u00e7\u013e\u0141\u00e7\u013c\u0126": 8034,
  "quer": 8035,
  "chi": 8036,
  "\u00ed\u0137\u013a\u00eb": 8037,
  "\u0120mistakes": 8038,
  "\u0120sla": 8039,
  "\u00e3\u0124\u00a4": 8040,
  "\u0120entr": 8041,
  "\u0120\u00d0\u00b5\u00d1\u0123\u00d0\u00bb\u00d0\u00b8": 8042,
  "\u0120shout": 8043,
  "\u0120portion": 8044,
  "\u00d1\u0139": 8045,
  "\u0120previously": 8046,
  "\u00e1\u00bb\u013b": 8047,
  "\u0120\u00d0\u00bf\u00d1\u0122\u00d0\u00b5\u00d0\u00b4": 8048,
  "\u00d0\u00be\u00d1\u0123\u00d1\u012e": 8049,
  "\u0120heads": 8050,
  "\u00e7\u0130": 8051,
  "\u00e5\u0143": 8052,
  "\u00e5\u013e\u012d": 8053,
  "\u0120grass": 8054,
  "\u00e0\u00b8\u00b0": 8055,
  "cribe": 8056,
  "\u0120qu\u00c3\u00a9": 8057,
  "\u0120Spanish": 8058,
  "\u0120offered": 8059,
  "\u0120\u00d0\u00b1\u00d1\u012d\u00d0\u00bb\u00d0\u00be": 8060,
  "\u0120Cloud": 8061,
  "\u0120vector": 8062,
  "\u0120Huh": 8063,
  "\u0120kad": 8064,
  "ifts": 8065,
  "\u0120\u00ce\u00bd": 8066,
  "\u0120hungry": 8067,
  "\u00d0\u00a1": 8068,
  "\u0120parall": 8069,
  "AND": 8070,
  "\u0120v\u00c3\u0143deo": 8071,
  "izz": 8072,
  "\u0120occup": 8073,
  "\u0120\u00ed\u0136": 8074,
  "\u0120seek": 8075,
  "hes": 8076,
  "\u0120doors": 8077,
  "\u0120houses": 8078,
  "\u0120considering": 8079,
  "\u0120graduate": 8080,
  "\u0120fulf": 8081,
  "\u00e8\u00a1\u012e": 8082,
  "\u00e8\u00a3": 8083,
  "\u0120extreme": 8084,
  "\u0120flowers": 8085,
  "itate": 8086,
  "\u0120Pri": 8087,
  "\u0120fundamental": 8088,
  "\u00d1\u0129\u00d0\u00b0\u00d1\u0123": 8089,
  "\u00e8\u00af\u00b4": 8090,
  "\u0120texture": 8091,
  "\u012f\u013a": 8092,
  "\u0120AND": 8093,
  "\u00e0\u00ae\u00b1": 8094,
  "\u0120Tem": 8095,
  "\u0120nada": 8096,
  "\u00ec\u00a7\u0126": 8097,
  "\u0120celebrate": 8098,
  "ums": 8099,
  "\u0120pill": 8100,
  "\u0120\u00d0\u00b8\u00d0\u00bb\u00d0\u00b8": 8101,
  "going": 8102,
  "\u0120hip": 8103,
  "\u0120supported": 8104,
  "\u0120perman": 8105,
  "\u0120agreement": 8106,
  "\u0120tym": 8107,
  "\u0120\u00eb\u0133": 8108,
  "\u0135\u00a4\u00ec\u013f\u00b4": 8109,
  "\u0120purchase": 8110,
  "\u00ed\u0136": 8111,
  "\u0120Plan": 8112,
  "egen": 8113,
  "\u0120recover": 8114,
  "PU": 8115,
  "\u0120Microsoft": 8116,
  "duc": 8117,
  "\u0120holes": 8118,
  "\u0120dropped": 8119,
  "\u0120pig": 8120,
  "\u0120ending": 8121,
  "\u0120attacks": 8122,
  "bec": 8123,
  "\u0120ren": 8124,
  "\u0120rapp": 8125,
  "\u0120\u00ec\u013c\u00b0\u00eb\u00a6\u00ac": 8126,
  "\u0120terror": 8127,
  "\u0120\u00d7\u013b": 8128,
  "\u0120edit": 8129,
  "\u0120ao": 8130,
  ".</": 8131,
  "\u01202000": 8132,
  "\u0120Union": 8133,
  "\u0120scientific": 8134,
  "\u0120punch": 8135,
  "ortion": 8136,
  "\u0120puts": 8137,
  "\u0120Monday": 8138,
  "\u0120Jer": 8139,
  "EC": 8140,
  "\u0120matrix": 8141,
  "\u0120institutions": 8142,
  "\u0120mont": 8143,
  "\u0120exhib": 8144,
  "\u0120speaker": 8145,
  "\u0120meters": 8146,
  ".]": 8147,
  "\u0120serving": 8148,
  "\u0120database": 8149,
  "\u0120LAU": 8150,
  "\u0120damn": 8151,
  "\u0120poder": 8152,
  "!!!!": 8153,
  "\u0120\u00ed\u0138\u012a": 8154,
  "\u0120AUDIENCE": 8155,
  "\u0120jun": 8156,
  "\u0120AC": 8157,
  "\u0120Ital": 8158,
  "sec": 8159,
  "\u0120Young": 8160,
  "ruck": 8161,
  "ouve": 8162,
  "\u00e0\u00b8\u0126": 8163,
  "\u00e7\u012a": 8164,
  "\u0120\u00eb\u00a7\u012e\u00eb": 8165,
  "ading": 8166,
  "uration": 8167,
  "\u0120PS": 8168,
  "\u00d0\u013c": 8169,
  "\u0120Unf": 8170,
  "\u00e8\u0123": 8171,
  "oria": 8172,
  "\u0120manif": 8173,
  "\u0120sentence": 8174,
  "\u0120signed": 8175,
  "BS": 8176,
  "\u0120proof": 8177,
  "\u0120Muslim": 8178,
  "\u0120nuclear": 8179,
  "\u0120\u00d0\u00b3\u00d0\u00be\u00d0\u00b2\u00d0\u00be\u00d1\u0122": 8180,
  "\u0120woll": 8181,
  "\u0120favour": 8182,
  "\u0120WH": 8183,
  "\u0120vulner": 8184,
  "\u0120closely": 8185,
  "\u0120index": 8186,
  "\u00d1\u0124\u00d0\u00b5\u00d1\u0122": 8187,
  "achel": 8188,
  "\u0120capable": 8189,
  "\u0120Bes": 8190,
  "\u0120croch": 8191,
  "ekt": 8192,
  "\u0120sheet": 8193,
  "\u0120sees": 8194,
  "\u0120naturally": 8195,
  "\u0120England": 8196,
  "\u0120participate": 8197,
  "\u0120exists": 8198,
  "\u0120sharp": 8199,
  "py": 8200,
  "\u0120breakfast": 8201,
  "bow": 8202,
  "\u0120twist": 8203,
  "\u00e7\u00a7": 8204,
  "inating": 8205,
  "oti": 8206,
  "\u0120Found": 8207,
  "\u0120deux": 8208,
  "\u0120selected": 8209,
  "\u00ec\u0142\u0126": 8210,
  "osis": 8211,
  "\u0120presented": 8212,
  "\u0120linear": 8213,
  "\u0120\u00ea\u00b4": 8214,
  "\u0120kun": 8215,
  "\u00e9\u00bb\u0140": 8216,
  "\u00c3\u00b4ng": 8217,
  "\u0120b\u00c4\u013bd": 8218,
  "\u0120tempor": 8219,
  "\u0120cable": 8220,
  "\u0120\u00d0\u00bf\u00d1\u0122\u00d0\u00be\u00d1\u0123\u00d1\u0124\u00d0\u00be": 8221,
  "\u00d0\u00ba\u00d0\u00b5": 8222,
  "\u0120\u00d1\u0124\u00d0\u00b0\u00d0\u00bc": 8223,
  "\u0120winning": 8224,
  "\u00e8\u0125\u00bd": 8225,
  "\u013a\u00eb\u0131\u0126": 8226,
  "\u01202014": 8227,
  "\u0120\u00ec\u0139\u00ac\u00eb": 8228,
  "\u0120UN": 8229,
  "\u0120Click": 8230,
  "\u0120prepar": 8231,
  "\u0120TO": 8232,
  "\u0120sua": 8233,
  "\u0120Ham": 8234,
  "\u0120l\u00c3\u00a4": 8235,
  "\u0120absolute": 8236,
  "\u0120engaged": 8237,
  "\u00e5\u00a6\u0124": 8238,
  "\u0120Hmm": 8239,
  "\u0120dash": 8240,
  "TA": 8241,
  "\u00c3\u00b1os": 8242,
  "\u0120spo": 8243,
  "\u00e7\u0136\u0141": 8244,
  ")]": 8245,
  "\u0120tested": 8246,
  "\u0120blank": 8247,
  "\u0120reject": 8248,
  "\u0120assim": 8249,
  "\u0120rear": 8250,
  "\u0120Str": 8251,
  "\u0120crash": 8252,
  "\u0120\u00d0\u00bd\u00d0\u00b0\u00d1\u012a": 8253,
  "\u00d0\u00b8\u00d1\u0124\u00d1\u0123\u00d1\u0131": 8254,
  "\u0120colon": 8255,
  "\u0120Unt": 8256,
  "\u0120Ce": 8257,
  "\u0120acid": 8258,
  "\u00e9\u0139": 8259,
  "\u0120kit": 8260,
  "ibilities": 8261,
  "uto": 8262,
  "\u0120valuable": 8263,
  "list": 8264,
  "\u0120parties": 8265,
  "\u0120Mm": 8266,
  "\u0120colour": 8267,
  "\u0120cham": 8268,
  "\u0120steel": 8269,
  "\u0120Imp": 8270,
  "\u0120funds": 8271,
  "\u0120DNA": 8272,
  "\u0120Ken": 8273,
  "inde": 8274,
  "\u00ed\u0137\u00b4\u00ec\u0126\u013e": 8275,
  "\u00e3\u0125\u0125": 8276,
  "\u0120Happy": 8277,
  "\u0120Use": 8278,
  "\u0120Light": 8279,
  "\u0120lip": 8280,
  "\u0120authority": 8281,
  "\u0120Long": 8282,
  "\u0120Iran": 8283,
  "\u0120ell": 8284,
  "\u0120coordin": 8285,
  "\u0120subm": 8286,
  "\u0120recorded": 8287,
  "\u00d1\u0125\u00d1\u012a": 8288,
  "\u0120delta": 8289,
  "\u0120reform": 8290,
  "\u0120Still": 8291,
  "\u0120oppon": 8292,
  "\u0120allowing": 8293,
  "\u0120patterns": 8294,
  "\u0120letting": 8295,
  "\u0120sleeping": 8296,
  "Okay": 8297,
  "\u0120pizza": 8298,
  "\u0120\u00c5\u013d": 8299,
  "\u0120\u00d0\u00b4\u00d0\u00be\u00d0\u00bb": 8300,
  "\u0120talent": 8301,
  "ensions": 8302,
  "\u0120environmental": 8303,
  "\u0120professor": 8304,
  "\u0120shots": 8305,
  "\u0120contains": 8306,
  "ugar": 8307,
  "yo": 8308,
  "\u0131\u013b": 8309,
  "\u0120sequence": 8310,
  "\u00ce\u00b9\u00ce\u00b1": 8311,
  "ader": 8312,
  "\u00e9\u0142": 8313,
  "\u00d0\u00b0\u00d1\u0129": 8314,
  "\u00d9\u0128\u00d8\u00a7": 8315,
  "\u0120Ik": 8316,
  "\u0120tous": 8317,
  "uries": 8318,
  "\u0120pounds": 8319,
  "\u0120external": 8320,
  "iments": 8321,
  "\u0120vraiment": 8322,
  "\u00ec\u012d\u00a4": 8323,
  "\u0120happiness": 8324,
  "\u0120prze": 8325,
  "estic": 8326,
  "\u0120establish": 8327,
  "\u0120Flor": 8328,
  "\u0120rig": 8329,
  "\u0120honey": 8330,
  "\u0120pul": 8331,
  "\u0120symptoms": 8332,
  "\u0120brows": 8333,
  "\u00d0\u00b5\u00d0\u00bb\u00d0\u00b8": 8334,
  "\u0120\u00cf\u0126\u00ce\u00bf": 8335,
  "\u0120shirt": 8336,
  "\u0120Techn": 8337,
  "\u0120Program": 8338,
  "\u00d0\u00b5\u00d0\u00bc\u00d1\u0125": 8339,
  "\u0120upset": 8340,
  "\u0120guest": 8341,
  "burg": 8342,
  "\u0120unlike": 8343,
  "\u0120somewhat": 8344,
  "\u0120hanging": 8345,
  "ae": 8346,
  "\u0120rum": 8347,
  "\u0120photograph": 8348,
  "\u0120Li": 8349,
  "\u00e5\u013d\u0140": 8350,
  "\u0120stable": 8351,
  "\u0120voltage": 8352,
  "\u0120Ell": 8353,
  "\u0120entreprene": 8354,
  "uses": 8355,
  "assen": 8356,
  "\u00ac\u00b8": 8357,
  "\u0120\u00eb\u00a7\u0130\u00ec\u013f\u00b4": 8358,
  "\u0120ghost": 8359,
  "\u0120sagen": 8360,
  "\u0120combat": 8361,
  "\u0120g\u00c3\u00b6r": 8362,
  "\u0120Cap": 8363,
  "\u0120s\u00c3\u00a3o": 8364,
  "\u0120Kat": 8365,
  "\u0120forma": 8366,
  "\u0120summ": 8367,
  "\u0120march": 8368,
  "\u0120vast": 8369,
  "\u00c3\u00bck": 8370,
  "\u0120commitment": 8371,
  "imos": 8372,
  "Let": 8373,
  "\u0120dedicated": 8374,
  "iste": 8375,
  "lay": 8376,
  "\u00e9\u0122\u013b\u00e6\u00a8\u00a3": 8377,
  "\u0120topics": 8378,
  "\u0120machines": 8379,
  "\u0120Paris": 8380,
  "\u0120\u00ec\u013f\u00b4\u00eb\u0141\u00b0": 8381,
  "\u0120mini": 8382,
  "\u0120markets": 8383,
  "\u0120ko": 8384,
  "\u00ce\u00b4": 8385,
  "ville": 8386,
  "\u0120goodness": 8387,
  "\u0120framework": 8388,
  "ulture": 8389,
  "\u0120basket": 8390,
  "essa": 8391,
  "\u00d0\u00b0\u00d1\u0128\u00d0\u00b8": 8392,
  "uster": 8393,
  "\u0120\u00ea\u00b9": 8394,
  "\u00e4\u00bd\u0128": 8395,
  "\u0120extent": 8396,
  "\u0120Menschen": 8397,
  "\u0120consistent": 8398,
  "\u0120auto": 8399,
  "rip": 8400,
  "\u0120mere": 8401,
  "\u00e0\u00af\u012a": 8402,
  "\u00d1\u0136": 8403,
  "\u0120elle": 8404,
  "\u012e\u0122\u00eb": 8405,
  "oken": 8406,
  "\u0120pulling": 8407,
  "\u0120cow": 8408,
  "outhern": 8409,
  "\u0120meetings": 8410,
  "\u0120cada": 8411,
  "\u00d0\u00bd\u00d1\u012d\u00d0\u00bc": 8412,
  "iente": 8413,
  "\u0120bast": 8414,
  "aning": 8415,
  "\u0120focusing": 8416,
  "road": 8417,
  "\u0120roof": 8418,
  "\u0120Professor": 8419,
  "\u0120SP": 8420,
  "\u00d1\u0122\u00d0\u00b0\u00d0\u00b7": 8421,
  "\u0120nood": 8422,
  "\u0120400": 8423,
  "\u0120\u00ec\u013f\u00b4\u00ec\u0142\u013e": 8424,
  "\u00ec\u0140\u012a": 8425,
  "\u0120Mount": 8426,
  "\u00d0\u00b5\u00d0\u00b9\u00d1\u0129\u00d0\u00b0\u00d1\u0123": 8427,
  "\u0120\u00d7\u0132": 8428,
  "Why": 8429,
  "\u00d7\u0140": 8430,
  "\u00c4\u00b1nda": 8431,
  "\u0120positions": 8432,
  "\u00c3\u00a8me": 8433,
  "\u00e7\u0131": 8434,
  "\u0120\u00d0\u00b4\u00d1\u0122\u00d1\u0125\u00d0\u00b3": 8435,
  "iyor": 8436,
  "\u0120passing": 8437,
  "\u0120assemb": 8438,
  "\u0120smoke": 8439,
  "\u0120til": 8440,
  "\u0120museum": 8441,
  "\u00d0\u0136": 8442,
  "\u0120Person": 8443,
  "\u00d0\u00bd\u00d0\u00b8\u00d0\u00bc": 8444,
  "leich": 8445,
  "\u0120intent": 8446,
  "\u0120sque": 8447,
  "\u0120craft": 8448,
  "\u00ec\u012a\u013a": 8449,
  "orsun": 8450,
  "\u0120150": 8451,
  "\u0120brothers": 8452,
  "vor": 8453,
  "\u0120Speaker": 8454,
  "icians": 8455,
  "\u0120officer": 8456,
  "\u0120i\u00c3\u00a7in": 8457,
  "\u0120\u00d1\u0124\u00d0\u00b5\u00d0\u00b1": 8458,
  "\u0120scratch": 8459,
  "\u0120generate": 8460,
  "yi": 8461,
  "\u0120emotions": 8462,
  "aus": 8463,
  "\u00ec\u00b9\u013a": 8464,
  "45": 8465,
  "\u0120Link": 8466,
  "\u0120Real": 8467,
  "\u0120ate": 8468,
  "\u0120\u00d0\u00bd\u00d0\u00b0\u00d0\u00b4": 8469,
  "\u0120native": 8470,
  "\u00e1\u00bb\u0129": 8471,
  "\u00c4\u00b1y": 8472,
  "\u0120enorm": 8473,
  "\u0120blocks": 8474,
  "\u0120faces": 8475,
  "acc": 8476,
  "iveness": 8477,
  "\u0120inches": 8478,
  "uis": 8479,
  "heit": 8480,
  "\u0120streets": 8481,
  "\u0120probability": 8482,
  "asi": 8483,
  "\u0120impl": 8484,
  "\u0120\u00e0\u00a4": 8485,
  "urday": 8486,
  "\u0120faut": 8487,
  "omy": 8488,
  "\u0120pip": 8489,
  "\u0120illust": 8490,
  "\u00e0\u00ae\u00af": 8491,
  "\u0120Jun": 8492,
  "\u0120lying": 8493,
  "99": 8494,
  "\u0120memories": 8495,
  "\u0120practical": 8496,
  "iana": 8497,
  "onces": 8498,
  "\u0120viewers": 8499,
  "\u0120Thomas": 8500,
  "\u00e6\u012e": 8501,
  "\u0120Girl": 8502,
  "\u0120Whether": 8503,
  "\u0120innovation": 8504,
  "\u0120disappoint": 8505,
  "My": 8506,
  "\u0120winner": 8507,
  "\u0120ig": 8508,
  "\u0120ratio": 8509,
  "\u0120Blue": 8510,
  "\u0120Sub": 8511,
  "\u0120documents": 8512,
  "\u0120formula": 8513,
  "\u0120\u00eb\u00a9": 8514,
  "\u00d1\u012c": 8515,
  "\u0120appeared": 8516,
  "var": 8517,
  "andon": 8518,
  "\u0120spray": 8519,
  "mak": 8520,
  "\u0120QUES": 8521,
  "KE": 8522,
  "\u0120wedding": 8523,
  "Re": 8524,
  "\u00d0\u00b0\u00d1\u0124\u00d1\u012e\u00d1\u0123\u00d1\u0131": 8525,
  "\u0120uno": 8526,
  "\u0120gall": 8527,
  "\u00ed\u0126\u00b0": 8528,
  "cio": 8529,
  "cers": 8530,
  "\u0120\u00d0\u00bc\u00d0\u00bd\u00d0\u00b5": 8531,
  "\u0120pepper": 8532,
  "\u00e3\u0123\u0139\u00e3\u0123\u0141": 8533,
  "\u0120Febru": 8534,
  "\u0120alternative": 8535,
  "\u0120fu": 8536,
  "\u0120Basically": 8537,
  "\u0120Smith": 8538,
  "\u0120gate": 8539,
  "\u0120Tam": 8540,
  "\u0120Whatever": 8541,
  "\u0120approxim": 8542,
  "\u0120concert": 8543,
  "\u0120juice": 8544,
  "\u0120Especially": 8545,
  "\u0120dynamic": 8546,
  "Qu": 8547,
  "onder": 8548,
  "ivery": 8549,
  "\u0120bang": 8550,
  "\u0120rul": 8551,
  "\u0120Party": 8552,
  "\u0120scholars": 8553,
  "\u0120crying": 8554,
  "j\u00c4\u0127": 8555,
  "\u00d0\u00a2": 8556,
  "\u0120QUESTION": 8557,
  "rid": 8558,
  "\u0120accurate": 8559,
  "\u00c3\u00a7o": 8560,
  "\u0120Cool": 8561,
  "coin": 8562,
  "\u0120\u00ec\u0125\u0123": 8563,
  "\u0120Fo": 8564,
  "\u0120pr\u00c3\u00b3": 8565,
  "\u0120Roman": 8566,
  "\u0120\u00d0\u0141\u00d1\u0122": 8567,
  "\u0120checking": 8568,
  "?'": 8569,
  "\u0120attached": 8570,
  "\u0120Islam": 8571,
  "\u0120experts": 8572,
  "\u00d7\u00a7": 8573,
  "\u0120Const": 8574,
  "\u00d1\u0122\u00d0\u00b0\u00d0\u00bd": 8575,
  "\u0120shadow": 8576,
  "\u0120delay": 8577,
  "\u00d0\u0134": 8578,
  "\u0120orient": 8579,
  "\u00eb\u0124": 8580,
  "ellen": 8581,
  "\u0120as\u00c3\u0143": 8582,
  "\u00d0\u00ba\u00d0\u00b8\u00d0\u00b9": 8583,
  "\u0120historical": 8584,
  "\u0120uncom": 8585,
  "omp": 8586,
  "hm": 8587,
  "\u0120bil": 8588,
  "\u0120planned": 8589,
  "\u0120Unfortunately": 8590,
  "\u0120Windows": 8591,
  "\u00d8\u00b4": 8592,
  "\u0120encounter": 8593,
  "\u0120\u00ec\u0125\u013f\u00ea\u00b0\u0123": 8594,
  "\u0120regarding": 8595,
  "arrass": 8596,
  "\u0120recovery": 8597,
  "\u0120Hur": 8598,
  "\u0120Emp": 8599,
  "\u0120s\u00c3\u0143": 8600,
  "\u00ed\u0137\u013a\u00ea\u00b2\u012e": 8601,
  "\u0120defend": 8602,
  "\u0120cet": 8603,
  "asse": 8604,
  "\u00eb\u012d\u00a8": 8605,
  "okes": 8606,
  "\u0120remote": 8607,
  "\u0120\u00d8\u00b3": 8608,
  "\u0120arts": 8609,
  "isco": 8610,
  "aucoup": 8611,
  "\u0120Mexico": 8612,
  "\u0120\u00d0\u00bf\u00d0\u00be\u00d0\u00bc": 8613,
  "\u0120chosen": 8614,
  "emat": 8615,
  "oding": 8616,
  "\u0120flower": 8617,
  "standing": 8618,
  "\u0120Associ": 8619,
  "ummy": 8620,
  "ILL": 8621,
  "\u0120cameras": 8622,
  "\u00e5\u0128\u012f": 8623,
  "\u0120\u00e6\u012a\u0133": 8624,
  "\u0120Arab": 8625,
  "\u0120Sum": 8626,
  "\u0120tego": 8627,
  "\u0120criminal": 8628,
  "iform": 8629,
  "\u0120stack": 8630,
  "\u00ec\u0126\u00b1": 8631,
  "\u0120Donald": 8632,
  "\u0120Old": 8633,
  "\u0120dust": 8634,
  "\u0120Jose": 8635,
  "\u0120hem": 8636,
  "\u0120increases": 8637,
  "osta": 8638,
  "\u0120dying": 8639,
  "\u0120River": 8640,
  "\u0120moist": 8641,
  "\u00d1\u0124\u00d0\u00be\u00d0\u00b2": 8642,
  "ares": 8643,
  "\u0120discipl": 8644,
  "rait": 8645,
  "\u0120Has": 8646,
  "ygen": 8647,
  "\u0120Tre": 8648,
  "\u0120\u00eb\u00b4": 8649,
  "\u0120languages": 8650,
  "\u0120Hen": 8651,
  "\u012036": 8652,
  "\u0120Disney": 8653,
  "ints": 8654,
  "\u0120algo": 8655,
  "\u0120foods": 8656,
  "\u0120setup": 8657,
  "lan": 8658,
  "\u0120effectively": 8659,
  "\u0120wherever": 8660,
  "\u00e6\u013e\u0122": 8661,
  "\u0120unter": 8662,
  "formation": 8663,
  "\u0120hits": 8664,
  "\u0120principle": 8665,
  "\u0120tastes": 8666,
  "\u00a7\u012a": 8667,
  "\u0120treated": 8668,
  "\u0120resolution": 8669,
  "\u0120privile": 8670,
  "\u0120IP": 8671,
  "\u00eb\u00b0": 8672,
  "\u0120territ": 8673,
  "\u0120powers": 8674,
  "\u0120\u00ed\u0125": 8675,
  "\u0120Vict": 8676,
  "\u0120bother": 8677,
  "\u0120Chair": 8678,
  "\u0120muscle": 8679,
  "\u0120sale": 8680,
  "\u0120decent": 8681,
  "\u0120coup": 8682,
  "\u0120Squ": 8683,
  "\u0120coast": 8684,
  "\u0120rod": 8685,
  "\u0120Franc": 8686,
  "\u0120bathroom": 8687,
  "\u0120shopping": 8688,
  "\u0120\u00d0\u00bc\u00d0\u00be\u00d0\u00b6\u00d0\u00b5\u00d1\u0124": 8689,
  "\u0120i\u00c5\u0141": 8690,
  "\u0120Stay": 8691,
  "grade": 8692,
  "\u0120formed": 8693,
  "\u0120ba\u00c5\u0141": 8694,
  "\u0120brill": 8695,
  "jour": 8696,
  "\u00ed\u0138": 8697,
  "\u00e5\u013d\u0142": 8698,
  "wie": 8699,
  "icate": 8700,
  "\u0120\u00e2\u0122\u012d\u00e2\u0122\u012d": 8701,
  "\u0120Norm": 8702,
  "\u00e0\u00a5": 8703,
  "\u0120mainly": 8704,
  "\u0120Space": 8705,
  "\u0120tremend": 8706,
  "iti": 8707,
  "\u00e0\u00ae\u00b5": 8708,
  "UT": 8709,
  "Music": 8710,
  "\u0120February": 8711,
  "\u0120contrast": 8712,
  "\u00e5\u00af\u00b9": 8713,
  "esting": 8714,
  "\u0120\u00ce\u00b4": 8715,
  "inging": 8716,
  "\u0120\u00d9\u0128": 8717,
  "ssen": 8718,
  "\u0120Home": 8719,
  "\u0120shell": 8720,
  "\u0120Hay": 8721,
  "\u0120aller": 8722,
  "\u0120Ap": 8723,
  "\u0120Western": 8724,
  "\u0120Word": 8725,
  "\u0120PLAY": 8726,
  "\u0120\u00eb\u0127": 8727,
  "\u0120Aqu": 8728,
  "\u0120entry": 8729,
  "\u0120launched": 8730,
  "\u0120Mem": 8731,
  "\u0120Pour": 8732,
  "\u0120zwe": 8733,
  "\u0120Someone": 8734,
  "inge": 8735,
  "\u0120Prob": 8736,
  "mble": 8737,
  "\u0120Rel": 8738,
  "uru": 8739,
  "\u0120rhy": 8740,
  "\u0120gig": 8741,
  "\u0120engagement": 8742,
  "\u00c3\u00bc\u00c5\u0141": 8743,
  "\u00e3\u0124\u0129": 8744,
  "\u0120offering": 8745,
  "whel": 8746,
  "\u0120actor": 8747,
  "\u0120\u00e5\u00b0\u012f": 8748,
  "APP": 8749,
  "west": 8750,
  "\u0120Roy": 8751,
  "\u0120returned": 8752,
  "\u0120silver": 8753,
  "rating": 8754,
  "\u0120estar": 8755,
  "\u0120ske": 8756,
  "\u0120ti": 8757,
  "ication": 8758,
  "\u0120annoy": 8759,
  "\u0120deeply": 8760,
  "\u00ec\u013c\u00a9": 8761,
  "\u0120nat\u00c3\u00bcrlich": 8762,
  "ELL": 8763,
  "\u0120Cath": 8764,
  "\u0120rail": 8765,
  "\u00d0\u00bd\u00d0\u00be\u00d0\u00b2": 8766,
  "\u0120prayer": 8767,
  "col": 8768,
  "GB": 8769,
  "\u0120\u00d0\u00a2\u00d0\u00b0\u00d0\u00ba": 8770,
  "\u0120gla": 8771,
  "\u0120Water": 8772,
  "\u00d1\u0131\u00d1\u0124\u00d1\u012e": 8773,
  "\u0120Non": 8774,
  "\u00c3\u00b4t": 8775,
  "agers": 8776,
  "\u0120hug": 8777,
  "\u0120doctors": 8778,
  "ancing": 8779,
  "\u0120Talk": 8780,
  "zing": 8781,
  "\u0120hadn": 8782,
  "\u0120lui": 8783,
  "\u0120at\u00c3\u00a9": 8784,
  "\u0120\u00ea\u00b7\u00b8\u00eb\u00a6\u00ac\u00ea\u00b3\u0142": 8785,
  "\u00ea\u00b9\u012e\u00ec\u00a7\u0122": 8786,
  "ici": 8787,
  "\u0120incorpor": 8788,
  "\u0120Di": 8789,
  "zil": 8790,
  "anya": 8791,
  "\u00aa\u0127": 8792,
  "\u0120\u00c2\u00bb": 8793,
  "35": 8794,
  "\u0120beer": 8795,
  "\u0120beaucoup": 8796,
  "\u0120MC": 8797,
  "\u0120ears": 8798,
  "ogen": 8799,
  "\u0120Quest": 8800,
  "eda": 8801,
  "\u00e6\u013e\u00ac": 8802,
  "\u0120Saturday": 8803,
  "\u0120falls": 8804,
  "ston": 8805,
  "bles": 8806,
  "\u0120thus": 8807,
  "\u0120\u00eb\u0126\u00a4": 8808,
  "\u00e0\u00b9\u0126": 8809,
  "\u0120therm": 8810,
  "\u0120diversity": 8811,
  "\u0120soy": 8812,
  "azu": 8813,
  "imp": 8814,
  "\u0120television": 8815,
  "\u00e9\u0123\u0130": 8816,
  "\u0120\u00d7\u00a9\u00d7\u013e": 8817,
  "\u0120wur": 8818,
  "\u0120edges": 8819,
  "\u0120lessons": 8820,
  "\u0120Aud": 8821,
  "\u00e3\u0123\u0139\u00e3\u0123\u00a6": 8822,
  "voir": 8823,
  "amento": 8824,
  "\u0120explained": 8825,
  "\u0120\u00d0\u00be\u00d0\u00bd\u00d0\u00b0": 8826,
  "\u0120temps": 8827,
  "\u00cf\u0130": 8828,
  "They": 8829,
  "\u0120surprising": 8830,
  "\u00d0\u00b0\u00d0\u00bd\u00d0\u00b8\u00d1\u0131": 8831,
  "\u0120Drag": 8832,
  "\u00e9\u013f\u00a2": 8833,
  "\u0120Cle": 8834,
  "\u0120nam": 8835,
  "\u0120\u00d0\u00bb\u00d1\u0130\u00d0\u00b4": 8836,
  "\u0120hardware": 8837,
  "\u0120thumbs": 8838,
  "\u0120\u00ce\u00ba\u00ce\u00b1\u00ce\u00b9": 8839,
  "\u0120Top": 8840,
  "\u0120\u00c3\u00a5": 8841,
  "\u00e9\u013b": 8842,
  "\u00d7\u0137\u00d7\u00a8": 8843,
  "\u0120\u00ea\u00b7\u00b8\u00eb\u0140\u013a\u00ec\u0126\u013e": 8844,
  "\u0120Budd": 8845,
  "thern": 8846,
  "\u0120interests": 8847,
  "\u00d8\u00b0": 8848,
  "\u0120developers": 8849,
  "\u0120hitting": 8850,
  "\u0120opposed": 8851,
  "\u0120hearts": 8852,
  "\u0120Android": 8853,
  "\u0120Hand": 8854,
  "\u0120represents": 8855,
  "glich": 8856,
  "\u00ed\u012c\u00b8": 8857,
  "\u012032": 8858,
  "\u0120domin": 8859,
  "\u0120Ann": 8860,
  "\u00e4\u00b8\u0122\u00e4\u00b8\u012d": 8861,
  "\u0120\u00c3\u00a9t\u00c3\u00a9": 8862,
  "\u0120zoom": 8863,
  "\u0120kt\u00c3\u00b3re": 8864,
  "\u0120adults": 8865,
  "\u0120ordered": 8866,
  "\u0120picking": 8867,
  "\u0120Hong": 8868,
  "\u0120filming": 8869,
  "\u00e6\u0122\u013f": 8870,
  "\u0120seed": 8871,
  "\u0120AT": 8872,
  "\u0120calculate": 8873,
  "\u0120\u00d0\u00ba\u00d0\u00be\u00d0\u00b3\u00d0\u00b4\u00d0\u00b0": 8874,
  "\u0120Os": 8875,
  "icit": 8876,
  "\u0120remaining": 8877,
  "\u0120segu": 8878,
  "\u00c3\u00bb": 8879,
  "\u0120\u00ec\u013a\u00a4\u00eb\u012c\u013a": 8880,
  "\u0120arrive": 8881,
  "\u0120congr": 8882,
[...]
